<unk>	0
<s>	0
</s>	0
▁the	-3.20268
▁,	-3.29773
▁.	-3.31969
s	-3.35368
▁of	-3.8077
▁and	-3.98267
▁in	-4.01507
▁a	-4.17687
▁"	-4.20837
▁to	-4.30268
ed	-4.42352
▁	-4.66434
▁was	-4.7414
▁is	-4.83191
▁The	-4.91296
ing	-5.02132
-	-5.0715
▁for	-5.19512
▁(	-5.23866
▁)	-5.24007
▁on	-5.31507
'	-5.33123
▁by	-5.39821
▁with	-5.40434
▁as	-5.4054
d	-5.45327
e	-5.52637
▁that	-5.60097
▁from	-5.6913
▁at	-5.7185
y	-5.80189
▁In	-5.82338
▁his	-5.83065
ly	-5.86217
▁an	-5.919
▁he	-5.955
er	-6.00011
▁He	-6.00496
t	-6.01869
▁A	-6.04019
▁are	-6.04254
▁were	-6.11755
n	-6.19018
▁It	-6.197
▁it	-6.19776
▁be	-6.24925
▁which	-6.24938
a	-6.2924
o	-6.29358
es	-6.3446
▁also	-6.3491
▁or	-6.35145
▁has	-6.36356
al	-6.40811
▁had	-6.43798
▁:	-6.44085
▁S	-6.45789
i	-6.4811
th	-6.48981
▁first	-6.51375
▁|	-6.55992
▁not	-6.63374
▁who	-6.66152
▁their	-6.66381
▁one	-6.69775
▁but	-6.73339
▁have	-6.73764
r	-6.76366
▁her	-6.7775
▁its	-6.81459
in	-6.82253
▁-	-6.82253
▁this	-6.82959
▁two	-6.8356
▁been	-6.90543
▁;	-6.9205
▁I	-6.9592
m	-6.96161
▁other	-7.01708
▁1	-7.01814
ion	-7.01981
on	-7.03598
▁after	-7.04514
▁can	-7.06694
▁C	-7.07399
l	-7.08189
▁B	-7.08808
▁de	-7.09674
or	-7.11627
▁they	-7.11685
le	-7.12237
▁into	-7.12358
k	-7.12515
▁time	-7.13103
en	-7.1397
▁all	-7.14807
▁H	-7.15677
▁This	-7.16376
▁over	-7.16395
▁E	-7.17559
▁she	-7.18071
st	-7.20264
▁New	-7.20946
▁2	-7.2259
an	-7.23045
▁re	-7.23213
ic	-7.23333
▁when	-7.2453
▁She	-7.24997
▁more	-7.253
▁up	-7.2803
▁P	-7.28154
▁%	-7.29921
▁out	-7.31006
▁years	-7.32053
▁3	-7.32991
▁M	-7.33226
▁born	-7.33679
▁used	-7.33868
ar	-7.33888
▁made	-7.34164
ation	-7.34272
▁where	-7.34997
man	-7.35059
▁new	-7.3586
▁would	-7.36011
▁about	-7.36558
▁only	-7.36888
▁On	-7.37054
▁U	-7.37078
▁O	-7.37262
▁G	-7.3736
g	-7.37705
ers	-7.38423
b	-7.3874
us	-7.39544
▁18	-7.39598
▁most	-7.39985
▁D	-7.40626
▁during	-7.41124
▁known	-7.41158
▁part	-7.41471
p	-7.42122
▁/	-7.42656
▁United	-7.42765
▁people	-7.43456
▁him	-7.44842
▁between	-7.44965
▁three	-7.4507
▁T	-7.45188
▁under	-7.45748
▁American	-7.46353
▁year	-7.46822
re	-7.46986
▁there	-7.47805
f	-7.48872
▁became	-7.49946
ton	-7.50416
u	-7.50867
▁such	-7.51285
▁later	-7.51522
▁K	-7.52001
▁many	-7.53263
▁some	-7.54438
▁F	-7.54678
▁than	-7.54688
z	-7.55363
h	-7.5618
▁N	-7.56432
c	-7.566
▁4	-7.56731
▁17	-7.568
▁They	-7.57814
▁team	-7.58589
▁season	-7.60974
▁second	-7.62649
▁called	-7.6287
▁University	-7.63113
▁W	-7.63172
▁well	-7.6327
ra	-7.64969
▁R	-7.65627
▁name	-7.65745
ist	-7.65754
▁no	-7.65863
▁then	-7.65866
is	-7.65981
▁film	-7.67286
na	-7.6821
il	-7.68323
▁being	-7.68371
to	-7.68445
▁including	-7.68539
▁work	-7.68855
ma	-7.69441
▁through	-7.69837
▁States	-7.7047
▁city	-7.71116
’	-7.71762
▁After	-7.72121
se	-7.72464
▁5	-7.72711
el	-7.73121
▁16	-7.73477
▁played	-7.73755
ia	-7.74058
ro	-7.74654
de	-7.74757
▁number	-7.75081
ity	-7.75261
▁before	-7.75271
▁may	-7.75383
ta	-7.75384
B	-7.75487
ry	-7.75576
▁them	-7.75599
▁album	-7.76299
▁L	-7.76591
S	-7.77059
▁10	-7.77071
▁family	-7.77178
until	-7.77498
▁area	-7.77656
▁As	-7.78698
▁released	-7.78751
▁school	-7.79479
▁against	-7.79661
P	-7.79837
▁both	-7.79928
ne	-7.80059
▁St	-7.8012
▁so	-7.80488
▁15	-7.80699
▁May	-7.80824
▁place	-7.81664
▁found	-7.81925
▁while	-7.81956
ch	-7.82621
▁un	-7.8328
▁–	-7.83619
▁won	-7.84033
▁f	-7.84215
it	-7.8458
▁There	-7.84622
▁will	-7.85068
ian	-7.85077
D	-7.85276
ment	-7.85408
▁6	-7.86073
▁World	-7.86182
am	-7.86744
co	-7.87485
te	-7.87503
▁state	-7.87704
▁At	-7.87715
▁De	-7.87911
ur	-7.87932
x	-7.88672
M	-7.88689
▁His	-7.89413
▁12	-7.89995
▁National	-7.89995
et	-7.91266
▁series	-7.91276
▁four	-7.91868
um	-7.92527
▁La	-7.92664
ive	-7.92829
F	-7.93076
▁War	-7.9326
▁Re	-7.9326
ies	-7.93729
▁several	-7.94167
▁game	-7.94697
ent	-7.94747
able	-7.9479
▁March	-7.95199
ul	-7.95384
ine	-7.96025
▁January	-7.96037
▁June	-7.96291
▁group	-7.96409
▁South	-7.96473
▁August	-7.96503
▁use	-7.96506
A	-7.96626
▁For	-7.97085
▁20	-7.97358
▁same	-7.97383
▁7	-7.97811
T	-7.9818
▁September	-7.9839
la	-7.98908
▁back	-7.99003
son	-7.99209
▁end	-7.99924
▁April	-7.99952
▁population	-8.00075
C	-8.00779
at	-8.00967
▁home	-8.00978
▁July	-8.01066
▁October	-8.01125
▁early	-8.01402
▁V	-8.0152
id	-8.0176
▁John	-8.01893
▁School	-8.02011
L	-8.02253
▁since	-8.02977
▁return	-8.03425
▁began	-8.03529
ter	-8.03553
▁these	-8.03903
▁Al	-8.03933
▁2010	-8.04092
▁County	-8.04174
▁died	-8.04536
▁8	-8.04935
land	-8.05558
ck	-8.05844
ke	-8.06369
▁music	-8.06445
ie	-8.06562
▁J	-8.06824
▁Le	-8.0698
▁following	-8.07002
▁11	-8.07233
▁Co	-8.07499
G	-8.07541
▁now	-8.07879
▁named	-8.08402
▁live	-8.08434
▁December	-8.08582
▁do	-8.08613
ri	-8.08707
▁14	-8.08715
as	-8.09288
▁government	-8.0933
li	-8.09372
▁November	-8.09382
▁York	-8.09437
▁9	-8.09665
▁town	-8.0968
ol	-8.09821
▁'	-8.10589
▁co	-8.10626
▁13	-8.10925
▁like	-8.11175
ant	-8.1118
▁age	-8.11308
N	-8.11338
▁each	-8.11436
▁very	-8.1173
▁final	-8.11754
$	-8.11914
▁high	-8.11943
▁located	-8.12051
age	-8.12248
E	-8.1264
▁0	-8.12731
R	-8.12734
tic	-8.12992
v	-8.13165
▁former	-8.13269
ty	-8.13393
ate	-8.13513
O	-8.13633
▁band	-8.13973
▁North	-8.14133
▁British	-8.14163
▁member	-8.1417
me	-8.14388
H	-8.14724
▁did	-8.14824
▁any	-8.15031
2	-8.15108
▁because	-8.15542
▁could	-8.1576
▁long	-8.16224
▁City	-8.16229
é	-8.1625
ley	-8.16385
ir	-8.16589
da	-8.16738
▁February	-8.16787
▁local	-8.16856
▁held	-8.16949
▁2011	-8.16961
▁p	-8.17394
w	-8.17406
▁took	-8.18348
ge	-8.18385
▁song	-8.18742
▁Ba	-8.18893
owever	-8.18942
▁line	-8.19121
▁around	-8.19146
▁2012	-8.19362
▁&	-8.1939
der	-8.19817
▁small	-8.20208
▁national	-8.20305
▁different	-8.20683
▁company	-8.21145
▁built	-8.21216
ni	-8.21229
ve	-8.21422
▁system	-8.21649
ba	-8.2179
ti	-8.21936
▁Dur	-8.22173
nd	-8.22339
▁To	-8.22757
▁show	-8.22808
▁All	-8.22924
▁world	-8.23036
ga	-8.23083
▁station	-8.23333
▁single	-8.23362
▁include	-8.23553
di	-8.23795
▁2008	-8.23923
ad	-8.24215
▁water	-8.24509
ha	-8.24805
▁order	-8.24825
▁An	-8.24952
ce	-8.24968
▁last	-8.25222
▁served	-8.25331
ism	-8.25377
▁No	-8.25543
–	-8.25749
▁2014	-8.25915
,	-8.26834
▁based	-8.26871
▁2009	-8.26994
▁left	-8.27151
▁2013	-8.27352
▁village	-8.27652
be	-8.27711
▁State	-8.27812
▁day	-8.28173
mo	-8.28211
▁said	-8.28258
▁large	-8.28522
ci	-8.28594
▁own	-8.28672
est	-8.28799
▁century	-8.28801
▁received	-8.29164
▁species	-8.29451
▁war	-8.29469
▁set	-8.29523
ous	-8.29655
▁English	-8.29732
▁Me	-8.29738
▁2007	-8.29908
no	-8.30349
▁France	-8.30442
ka	-8.30552
▁main	-8.30608
lo	-8.30638
▁public	-8.30706
▁g	-8.3072
▁life	-8.30722
▁German	-8.31052
ak	-8.31102
un	-8.31366
ary	-8.31688
▁often	-8.31696
▁along	-8.31974
ca	-8.31992
▁make	-8.3203
▁death	-8.32774
▁When	-8.33147
▁League	-8.3319
▁e	-8.33253
sh	-8.33403
▁West	-8.339
▁2006	-8.34128
W	-8.34239
▁football	-8.34249
▁land	-8.34257
▁2015	-8.34352
▁play	-8.34622
▁north	-8.34768
▁short	-8.34978
▁children	-8.35064
▁published	-8.35103
▁five	-8.35225
▁River	-8.35917
▁30	-8.36179
▁Mar	-8.36221
▁Li	-8.3657
▁French	-8.36619
ance	-8.3669
▁form	-8.36702
▁still	-8.37098
▁per	-8.37247
▁million	-8.37254
▁due	-8.37776
▁c	-8.37856
▁off	-8.3818
▁club	-8.38262
▁members	-8.38293
▁player	-8.38402
▁within	-8.38597
▁head	-8.38628
▁book	-8.3864
▁19	-8.38758
▁son	-8.38857
up	-8.38927
do	-8.3901
▁started	-8.39287
▁building	-8.39293
▁third	-8.39366
im	-8.39465
▁2016	-8.39822
▁San	-8.40052
▁allow	-8.40273
▁if	-8.40478
▁best	-8.40478
go	-8.40737
▁Mo	-8.40996
▁near	-8.41729
▁help	-8.42008
▁Con	-8.42572
ling	-8.43071
▁down	-8.43108
▁another	-8.43178
▁b	-8.4322
▁25	-8.43518
1	-8.43689
▁included	-8.438
▁London	-8.44028
▁Po	-8.44368
▁Sa	-8.44512
▁Man	-8.44516
▁Na	-8.4487
▁career	-8.44933
▁major	-8.45022
▁Vi	-8.45172
ll	-8.45244
▁region	-8.45284
▁Ar	-8.45382
j	-8.45519
▁side	-8.45853
▁These	-8.46034
▁Ro	-8.46107
ac	-8.46196
V	-8.46295
ated	-8.4632
ner	-8.46349
▁those	-8.4637
▁country	-8.46741
▁Bo	-8.4692
▁period	-8.46928
▁district	-8.47165
▁Be	-8.47266
▁Ma	-8.47578
lin	-8.47935
▁Ca	-8.47954
▁consider	-8.48222
▁us	-8.48291
▁US	-8.48563
way	-8.48656
▁south	-8.48722
▁what	-8.48736
▁father	-8.48741
▁England	-8.49199
▁married	-8.49245
▁con	-8.49299
K	-8.49378
ah	-8.49703
▁Her	-8.49856
▁much	-8.50154
▁College	-8.50511
▁went	-8.50593
▁2017	-8.50644
▁support	-8.50703
▁change	-8.50743
wa	-8.50829
▁Pa	-8.51216
▁service	-8.51408
ard	-8.51514
▁came	-8.51577
▁again	-8.51632
▁Air	-8.51753
ut	-8.51839
▁just	-8.51875
▁m	-8.52319
▁air	-8.52435
▁power	-8.53045
▁II	-8.53298
▁led	-8.53339
mb	-8.5354
▁One	-8.536
▁Ho	-8.53608
U	-8.53735
▁men	-8.53837
▁Ka	-8.53864
▁become	-8.54198
▁top	-8.54293
▁house	-8.54383
▁non	-8.54508
▁record	-8.54631
pp	-8.54701
4	-8.54811
▁go	-8.54837
3	-8.55064
▁original	-8.55081
mi	-8.55118
▁late	-8.55201
ig	-8.55316
▁Ta	-8.5557
▁24	-8.55613
▁pre	-8.55855
▁East	-8.56627
▁District	-8.56788
▁provide	-8.56789
▁Lo	-8.57025
▁King	-8.5712
▁popular	-8.57294
▁Se	-8.57443
om	-8.5768
▁way	-8.57716
▁example	-8.58018
▁total	-8.58122
▁title	-8.58216
va	-8.58224
▁2005	-8.58286
▁six	-8.58505
▁By	-8.58603
▁Z	-8.5868
▁di	-8.58757
▁21	-8.58967
▁Park	-8.58974
▁role	-8.59047
▁pro	-8.59309
▁post	-8.59361
I	-8.59583
ster	-8.59668
den	-8.59686
▁Car	-8.59985
▁few	-8.60058
ish	-8.60305
▁car	-8.60326
▁El	-8.60828
▁Some	-8.61343
op	-8.61475
▁award	-8.6154
ho	-8.61668
▁women	-8.61694
▁take	-8.61738
▁man	-8.62018
ber	-8.62067
▁written	-8.62124
▁established	-8.62184
men	-8.6221
▁House	-8.62267
▁2000	-8.62307
▁history	-8.62454
ler	-8.62625
ness	-8.62661
▁created	-8.62746
▁Di	-8.62857
hi	-8.62986
▁result	-8.63172
lu	-8.63245
▁next	-8.63415
▁Ra	-8.63466
ina	-8.6393
▁feature	-8.64147
min	-8.64211
▁even	-8.64278
▁present	-8.64383
5	-8.64571
▁produced	-8.64855
per	-8.6526
▁Go	-8.65523
▁22	-8.65661
ang	-8.65708
▁2004	-8.65746
he	-8.65803
▁worked	-8.66044
▁Pro	-8.66057
▁!	-8.66081
▁important	-8.66672
▁wrote	-8.66837
bo	-8.66845
pa	-8.67129
▁various	-8.6728
▁announc	-8.67309
▁games	-8.67461
given	-8.67499
▁development	-8.6752
em	-8.67533
▁old	-8.67773
▁current	-8.67884
▁Su	-8.67969
ot	-8.68024
▁point	-8.68123
▁television	-8.68215
by	-8.68382
▁President	-8.68398
ham	-8.68426
con	-8.68593
▁International	-8.6861
▁la	-8.68681
che	-8.69054
▁mov	-8.69123
▁come	-8.6916
ence	-8.69298
▁community	-8.69861
les	-8.70068
▁reach	-8.70239
▁d	-8.70363
▁among	-8.70626
ally	-8.71184
▁High	-8.71221
vi	-8.71254
▁general	-8.71259
▁law	-8.71329
▁students	-8.71397
▁America	-8.71474
▁every	-8.71752
ko	-8.71826
tra	-8.7186
▁political	-8.71923
▁control	-8.72014
▁23	-8.72042
▁business	-8.72054
▁production	-8.72316
▁lead	-8.72436
ship	-8.7254
▁“	-8.72757
▁Cup	-8.72813
▁100	-8.7284
▁having	-8.72883
▁joined	-8.73521
▁From	-8.73592
▁see	-8.73653
▁India	-8.73719
han	-8.73744
,000	-8.73828
▁Church	-8.73831
ov	-8.7387
▁attack	-8.73876
line	-8.73923
ana	-8.7406
▁So	-8.74092
▁Australia	-8.74216
▁we	-8.74242
▁professional	-8.74419
▁movie	-8.74466
▁similar	-8.74548
▁Ha	-8.748
ow	-8.74822
ph	-8.74988
▁California	-8.75009
▁international	-8.75231
▁William	-8.75257
▁continu	-8.75357
pe	-8.75734
mp	-8.75756
time	-8.75771
▁position	-8.75782
▁list	-8.75789
ja	-8.75874
▁right	-8.75883
▁Ne	-8.75975
au	-8.7614
ville	-8.76344
▁contain	-8.76351
▁Ri	-8.76407
▁run	-8.76409
za	-8.76544
ru	-8.76684
▁sub	-8.76909
▁good	-8.77048
7	-8.77091
▁Dr	-8.77113
less	-8.77256
▁version	-8.7735
ical	-8.7738
▁together	-8.77428
0	-8.77476
▁Ko	-8.7749
▁26	-8.77597
▁however	-8.77672
▁design	-8.77744
▁light	-8.779
os	-8.78236
▁Ga	-8.78283
▁without	-8.78305
8	-8.78342
▁George	-8.7841
▁free	-8.7844
▁ex	-8.7851
▁founded	-8.7854
▁host	-8.78675
▁round	-8.78698
▁site	-8.78757
ven	-8.789
▁w	-8.79117
▁program	-8.79277
ized	-8.79303
▁remain	-8.7935
gg	-8.79516
▁dis	-8.79561
▁video	-8.79676
▁Do	-8.79737
▁described	-8.79819
▁debut	-8.79879
ya	-8.7998
▁28	-8.79998
▁27	-8.8
▁full	-8.80111
▁church	-8.8031
▁common	-8.80311
▁European	-8.80385
▁Lu	-8.80403
que	-8.80474
ki	-8.80648
▁interest	-8.80667
end	-8.80767
one	-8.80772
▁General	-8.80784
▁Indian	-8.80798
▁According	-8.8101
▁level	-8.8109
▁Party	-8.81094
▁west	-8.81118
▁race	-8.81153
▁X	-8.81358
ub	-8.8139
ver	-8.81434
▁military	-8.81502
bi	-8.81543
ny	-8.8174
▁move	-8.81794
▁living	-8.82083
▁2003	-8.82143
▁project	-8.82308
▁usually	-8.82415
▁east	-8.82433
mer	-8.82641
▁We	-8.82766
▁process	-8.83101
und	-8.83364
ud	-8.83444
á	-8.83445
▁average	-8.83538
▁daughter	-8.83603
▁Street	-8.83608
▁art	-8.83877
ger	-8.83921
▁James	-8.83929
▁opened	-8.84042
▁offer	-8.84141
ten	-8.84374
▁department	-8.84378
ward	-8.84638
▁Gu	-8.847
mon	-8.8478
▁research	-8.84809
▁term	-8.84915
▁Council	-8.84925
▁lost	-8.85027
▁real	-8.8511
▁consist	-8.8512
▁director	-8.85148
▁election	-8.85314
▁win	-8.85662
▁person	-8.85902
▁appeared	-8.85947
ran	-8.85966
▁Germany	-8.85979
▁Army	-8.8611
▁With	-8.86605
▁making	-8.86633
▁2001	-8.86828
▁event	-8.87031
▁2002	-8.87032
▁wife	-8.87032
00	-8.87151
▁open	-8.87163
▁formula	-8.87206
▁half	-8.87302
▁Canada	-8.87308
▁Or	-8.87319
▁formed	-8.874
▁enter	-8.87415
▁special	-8.87556
ct	-8.87607
▁times	-8.87637
▁stage	-8.87652
▁largest	-8.87674
▁want	-8.87715
▁coach	-8.87721
ities	-8.87759
▁style	-8.8788
▁field	-8.87892
▁story	-8.88219
▁match	-8.88316
▁1990	-8.88386
▁=	-8.88469
ite	-8.88486
▁me	-8.88778
▁Cha	-8.88839
▁]	-8.88907
▁court	-8.88911
▁need	-8.88929
▁language	-8.88971
▁center	-8.89006
▁release	-8.89058
▁how	-8.89207
▁km	-8.89258
gu	-8.89319
▁_	-8.89555
▁social	-8.89563
▁days	-8.89619
▁works	-8.89754
▁recorded	-8.901
▁[	-8.90348
▁pass	-8.90365
ill	-8.90381
▁body	-8.90388
▁Division	-8.90399
▁character	-8.90409
▁Royal	-8.90428
▁Robert	-8.90501
▁capital	-8.90636
▁party	-8.90664
▁working	-8.90676
▁performance	-8.90756
ford	-8.90939
field	-8.90978
▁Ni	-8.911
ld	-8.91113
ong	-8.91155
▁fire	-8.91251
▁1980	-8.91253
▁modern	-8.91291
▁appear	-8.91365
ron	-8.91367
vo	-8.91511
▁29	-8.91677
▁ten	-8.91783
▁Roman	-8.91875
▁developed	-8.91912
▁bar	-8.92197
▁Y	-8.92237
▁elected	-8.92302
▁should	-8.92335
ors	-8.92812
▁mother	-8.92879
io	-8.92935
po	-8.93062
▁Union	-8.9315
▁rock	-8.93342
▁never	-8.93355
chi	-8.93368
ium	-8.93467
▁sp	-8.9406
gen	-8.94294
▁himself	-8.94411
▁Paul	-8.9452
▁further	-8.94559
▁get	-8.94635
ier	-8.94643
▁addition	-8.94744
▁playing	-8.94759
we	-8.95008
▁Award	-8.95089
▁less	-8.95132
ach	-8.95192
▁novel	-8.9524
▁signed	-8.95262
—	-8.95407
▁Per	-8.9548
▁While	-8.95482
lan	-8.9559
▁case	-8.95773
▁hand	-8.95881
▁market	-8.95954
▁Australian	-8.95974
▁Ja	-8.96064
▁refer	-8.96395
▁young	-8.96415
9	-8.96859
ap	-8.97084
side	-8.97147
▁although	-8.97247
▁study	-8.97381
▁Du	-8.97484
▁office	-8.97498
ology	-8.97534
6	-8.97616
ful	-8.97657
▁though	-8.9767
ell	-8.97707
▁ground	-8.97747
▁does	-8.97768
▁great	-8.97781
▁Europe	-8.9786
▁50	-8.97863
▁human	-8.9794
▁Da	-8.98299
gan	-8.98399
mar	-8.9849
ou	-8.9857
ions	-8.98738
▁sold	-8.98801
and	-8.98957
▁continue	-8.99038
▁put	-8.99386
ial	-8.99455
▁across	-8.99705
▁Act	-8.9977
▁black	-8.99848
▁David	-9.00006
▁Association	-9.00106
ting	-9.00108
gar	-9.00132
rs	-9.00232
▁countries	-9.00238
▁Pe	-9.00254
▁Hall	-9.00434
out	-9.01015
▁Black	-9.01101
ex	-9.01123
▁league	-9.0131
▁Te	-9.01333
▁appointed	-9.01387
▁areas	-9.01417
▁1970	-9.0144
▁gave	-9.01599
▁Hu	-9.01722
▁t	-9.01742
▁Japanese	-9.01858
ab	-9.0189
▁track	-9.01906
▁available	-9.02114
▁1999	-9.02146
▁close	-9.02393
ure	-9.0251
▁contract	-9.02668
▁seven	-9.02684
tor	-9.02746
▁Court	-9.02858
▁31	-9.02889
▁First	-9.02907
wi	-9.03071
ung	-9.03217
▁com	-9.03293
▁must	-9.03421
▁Fa	-9.03426
▁performed	-9.03488
▁Mi	-9.0353
▁tour	-9.03691
▁taken	-9.03831
gi	-9.03835
▁hit	-9.03889
▁away	-9.03908
har	-9.03912
ft	-9.03916
spite	-9.03921
▁China	-9.04112
▁white	-9.04146
▁Island	-9.0429
▁Lake	-9.04396
rd	-9.04453
▁Jo	-9.04731
▁reported	-9.04766
▁plays	-9.04796
▁range	-9.04886
ning	-9.04889
▁author	-9.04913
▁brother	-9.05024
▁you	-9.05854
du	-9.05872
hu	-9.06053
▁road	-9.06094
ey	-9.06316
▁Pi	-9.06372
ide	-9.06393
▁front	-9.0652
▁seen	-9.06537
▁Road	-9.06634
ev	-9.06646
▁mid	-9.0671
▁UK	-9.06752
ze	-9.06829
▁Bar	-9.06866
▁Red	-9.07117
▁space	-9.0717
the	-9.07202
▁Sch	-9.07285
X	-9.07327
▁Since	-9.07622
▁Green	-9.07879
▁finished	-9.07891
tro	-9.08112
▁al	-9.08142
▁songs	-9.08155
oc	-9.08214
▁Music	-9.08385
ica	-9.08393
▁Charles	-9.08428
▁college	-9.08503
▁Bi	-9.08506
▁White	-9.08559
▁Mon	-9.08582
ji	-9.0863
▁originally	-9.08719
▁means	-9.08735
▁ma	-9.08738
▁Russian	-9.0879
▁sea	-9.08837
▁1998	-9.08903
▁k	-9.08921
▁education	-9.08939
▁Am	-9.0905
▁en	-9.09146
tion	-9.09271
▁start	-9.09308
▁services	-9.09326
▁competition	-9.09382
”	-9.09511
▁week	-9.09537
▁points	-9.09602
▁Other	-9.09662
▁months	-9.0977
▁once	-9.09965
▁po	-9.10036
▁teams	-9.10073
▁strong	-9.10181
▁Most	-9.10195
▁commune	-9.10204
▁Central	-9.10232
▁replac	-9.10241
▁killed	-9.10253
▁ship	-9.10263
ise	-9.10277
▁base	-9.10325
lthough	-9.10391
▁Japan	-9.10429
▁Many	-9.10513
▁river	-9.10563
▁low	-9.10604
▁class	-9.1062
▁seat	-9.10623
▁events	-9.10635
▁plant	-9.10669
▁private	-9.10746
▁sent	-9.10765
ai	-9.10937
▁designed	-9.11084
J	-9.11189
port	-9.11209
▁ch	-9.11217
▁official	-9.11228
▁Washington	-9.11236
▁Company	-9.11322
▁size	-9.11367
▁mo	-9.11438
▁Italian	-9.11585
▁ca	-9.11815
sk	-9.11932
▁county	-9.12029
▁report	-9.12045
▁provid	-9.12053
▁radio	-9.12227
.2	-9.12263
▁model	-9.12285
▁includes	-9.12294
▁famous	-9.12314
▁Center	-9.12329
▁success	-9.12361
▁directed	-9.12378
▁division	-9.12518
▁Ch	-9.12773
tt	-9.13069
▁But	-9.1308
▁president	-9.13148
lic	-9.13192
▁followed	-9.13197
▁Ben	-9.13379
sta	-9.13594
▁throughout	-9.13802
▁type	-9.13881
▁Spanish	-9.14104
▁Thomas	-9.14283
▁attempt	-9.1429
▁Art	-9.14482
iv	-9.14541
▁1960	-9.14623
▁Canadian	-9.147
▁movement	-9.14827
unt	-9.14827
▁Wa	-9.1486
▁influence	-9.15119
▁either	-9.15128
tu	-9.15178
▁Ex	-9.15317
▁toward	-9.15334
▁Christian	-9.15351
.3	-9.15777
▁Saint	-9.16088
▁du	-9.16117
▁Great	-9.16249
▁My	-9.16314
▁battle	-9.16469
▁campaign	-9.16478
▁police	-9.166
▁Western	-9.16693
tri	-9.16841
▁central	-9.16874
▁completed	-9.17011
▁r	-9.17037
▁leading	-9.1723
ett	-9.17293
▁eight	-9.17302
▁sc	-9.17346
ff	-9.17358
▁Cor	-9.17492
ug	-9.17522
▁training	-9.17635
▁experience	-9.17671
.5	-9.17776
▁singer	-9.17817
▁episode	-9.17832
▁Club	-9.17918
▁vi	-9.17943
sen	-9.17949
▁met	-9.18015
▁wide	-9.1809
▁sometimes	-9.18106
▁Minister	-9.18107
ker	-9.18187
▁serve	-9.18233
▁Department	-9.1832
▁1997	-9.18329
ip	-9.18481
▁Championship	-9.1851
cy	-9.18513
▁added	-9.18513
▁information	-9.18531
▁above	-9.18537
▁Bay	-9.18619
▁park	-9.18682
▁writing	-9.18728
▁construction	-9.18761
fa	-9.18936
fi	-9.19024
▁Academy	-9.19066
▁1996	-9.19072
▁Grand	-9.19129
▁studio	-9.19177
▁Chinese	-9.19253
well	-9.19326
▁island	-9.19345
▁network	-9.19411
▁inter	-9.19413
▁40	-9.19439
▁far	-9.19583
▁involved	-9.19593
▁Can	-9.19608
cha	-9.19803
▁forces	-9.19815
▁province	-9.1988
ay	-9.19882
▁features	-9.19919
▁others	-9.20154
▁census	-9.20227
pi	-9.20391
.1	-9.20397
val	-9.205
▁active	-9.205
ep	-9.20576
▁able	-9.20611
▁groups	-9.20668
▁TV	-9.20725
ney	-9.20791
fe	-9.20997
ek	-9.21014
▁Los	-9.21088
▁v	-9.21095
▁give	-9.21274
▁significant	-9.21306
▁anti	-9.21349
▁African	-9.21473
▁deal	-9.21573
▁Har	-9.21676
▁Paris	-9.21829
q	-9.21832
▁test	-9.21922
nt	-9.21991
▁route	-9.22017
tre	-9.22046
▁Peter	-9.22078
▁Ab	-9.22165
▁Group	-9.22182
ari	-9.22438
▁1992	-9.22438
▁degree	-9.22477
▁Institute	-9.22624
▁players	-9.22685
▁bank	-9.22688
▁Michael	-9.22721
▁Richard	-9.22725
ice	-9.2287
▁Ju	-9.22893
▁eventually	-9.22947
▁female	-9.23007
▁practice	-9.23011
ble	-9.23084
ino	-9.23143
aw	-9.23213
▁date	-9.23275
▁Fi	-9.23482
▁1994	-9.23542
▁love	-9.23587
▁command	-9.23596
▁engine	-9.23619
▁successful	-9.23654
▁Catholic	-9.23664
▁night	-9.237
▁Africa	-9.23754
day	-9.23766
▁Star	-9.23766
▁1995	-9.23802
▁almost	-9.24192
tin	-9.24199
▁southern	-9.24222
▁Day	-9.24272
ade	-9.24306
▁saw	-9.24577
▁actor	-9.24734
▁Bra	-9.24745
▁issue	-9.24768
▁decided	-9.24809
▁red	-9.24846
▁Sea	-9.24916
ik	-9.25029
▁independent	-9.25057
ization	-9.25058
tur	-9.25105
▁i	-9.25167
ther	-9.25211
▁Ge	-9.2531
▁natural	-9.25311
▁Mor	-9.2543
▁rank	-9.25453
▁rest	-9.25679
▁food	-9.25898
idae	-9.25945
▁northern	-9.26012
▁word	-9.26046
▁collection	-9.2606
▁thought	-9.26102
▁Tri	-9.26116
▁focus	-9.26117
▁Mac	-9.26148
tan	-9.26185
ath	-9.26191
all	-9.26197
.7	-9.26225
▁caus	-9.26243
ius	-9.26249
▁books	-9.2625
ating	-9.26251
▁Texas	-9.26279
yl	-9.26357
▁municipality	-9.26359
van	-9.26415
.4	-9.26431
▁Mal	-9.26463
▁aircraft	-9.26519
▁If	-9.26596
ea	-9.26615
▁Ph	-9.26623
▁magazine	-9.26648
▁fourth	-9.26762
▁shows	-9.26768
▁rate	-9.26774
ile	-9.2681
ring	-9.26918
▁board	-9.26936
▁Best	-9.27034
ng	-9.2714
▁Tu	-9.27194
▁unit	-9.27262
▁Kingdom	-9.274
let	-9.27571
▁Chi	-9.27714
▁gain	-9.27798
▁vote	-9.27831
not	-9.28264
▁tell	-9.28458
▁least	-9.28556
▁li	-9.2867
▁Pre	-9.28717
▁border	-9.28792
▁families	-9.28808
▁ask	-9.28912
▁sh	-9.28948
ists	-9.28973
wood	-9.29027
nes	-9.29052
▁Col	-9.29053
▁break	-9.29171
▁studi	-9.29412
▁Ke	-9.2954
▁previous	-9.29544
▁Don	-9.29749
▁En	-9.29829
▁force	-9.29885
▁outside	-9.29892
▁Society	-9.30073
our	-9.30224
▁Henry	-9.3025
brought	-9.30289
▁Republic	-9.30313
ign	-9.30388
▁money	-9.304
▁view	-9.30504
▁2018	-9.30579
off	-9.3121
▁color	-9.31228
▁Sun	-9.31245
house	-9.31264
▁subsequent	-9.313
▁Two	-9.31497
.8	-9.316
▁rule	-9.31713
▁Super	-9.31767
▁sound	-9.31829
qu	-9.31855
▁organization	-9.31905
▁1993	-9.31908
▁Wi	-9.3194
▁Ver	-9.31944
▁God	-9.31977
.6	-9.31982
▁Min	-9.3207
▁medal	-9.32096
▁score	-9.32266
▁section	-9.32281
▁upon	-9.32313
▁health	-9.32371
kin	-9.32404
▁Sp	-9.32405
▁accept	-9.32435
▁centre	-9.32564
▁goal	-9.32588
▁little	-9.32613
don	-9.3265
▁Hill	-9.32659
ever	-9.32771
▁schools	-9.32869
▁child	-9.32887
ick	-9.32922
▁Louis	-9.32941
over	-9.33028
▁soon	-9.33048
▁tournament	-9.33151
▁Rock	-9.33212
ction	-9.33219
▁army	-9.33371
▁act	-9.33407
ez	-9.33471
tal	-9.33513
ative	-9.33547
▁Greek	-9.33587
▁Q	-9.33595
uc	-9.33761
▁1991	-9.33806
ib	-9.3393
▁cause	-9.33935
berg	-9.33965
.0	-9.34024
qui	-9.34096
▁summer	-9.3424
tz	-9.34304
▁possible	-9.34307
▁instead	-9.34342
tive	-9.34362
▁lower	-9.34477
▁railway	-9.34534
rather	-9.34605
▁past	-9.34707
▁states	-9.3475
▁commercial	-9.34817
ator	-9.34864
tter	-9.34971
▁Mary	-9.35003
ue	-9.35057
▁introduced	-9.35166
▁length	-9.35243
▁#	-9.35256
▁Ti	-9.3539
ris	-9.35399
▁Soviet	-9.35477
car	-9.35581
▁Gi	-9.35629
▁Chicago	-9.35919
▁1989	-9.35967
▁ran	-9.36359
▁stated	-9.36433
▁join	-9.36495
▁fact	-9.36498
pur	-9.36505
▁month	-9.36522
.9	-9.36537
▁Sal	-9.36613
▁Hi	-9.36636
▁media	-9.36764
▁especial	-9.36809
▁Che	-9.3684
▁And	-9.3686
▁got	-9.37025
▁leader	-9.37056
▁scored	-9.37146
▁farm	-9.37162
▁parts	-9.3717
▁Men	-9.37199
▁Bur	-9.37341
ren	-9.37361
▁economic	-9.37407
▁develop	-9.37435
▁structure	-9.37457
▁science	-9.37581
▁data	-9.37625
▁find	-9.37661
▁beginning	-9.37757
▁access	-9.37864
▁hard	-9.37966
ement	-9.38013
▁ever	-9.38076
▁Film	-9.38199
▁my	-9.38217
▁highest	-9.38364
▁Italy	-9.38413
▁mission	-9.38416
▁mostly	-9.38491
▁look	-9.38493
▁approximately	-9.38496
▁read	-9.38627
▁keep	-9.38675
▁1988	-9.38735
▁rights	-9.38845
lip	-9.38887
▁industry	-9.39071
▁itself	-9.39071
▁Law	-9.39072
▁Smith	-9.39492
▁chart	-9.39507
▁clear	-9.3953
▁Year	-9.39576
▁Mc	-9.3962
▁writer	-9.39662
–19	-9.397
og	-9.39719
ix	-9.39731
old	-9.39944
▁artist	-9.39993
ef	-9.40047
▁Football	-9.40067
▁culture	-9.40185
▁winning	-9.40232
▁via	-9.40328
ves	-9.40374
0,000	-9.4047
▁action	-9.40529
jo	-9.40556
▁spent	-9.40779
▁championship	-9.40849
▁1950	-9.40862
▁certain	-9.40956
▁cross	-9.40969
▁account	-9.41034
▁imp	-9.41061
▁Port	-9.41064
▁gold	-9.41101
▁meeting	-9.41299
▁previously	-9.41354
▁reveal	-9.41424
▁bi	-9.41425
▁trade	-9.41452
led	-9.4149
▁operate	-9.41507
▁sister	-9.41519
▁below	-9.41542
▁owned	-9.41591
▁Ireland	-9.41627
▁runs	-9.4163
▁attended	-9.41693
▁Sir	-9.41696
▁relationship	-9.41818
mm	-9.41891
▁turn	-9.41952
▁regular	-9.42
▁politician	-9.4201
▁Si	-9.42091
▁personal	-9.42201
▁decision	-9.42325
▁behind	-9.42325
▁exist	-9.42381
▁recording	-9.42453
▁You	-9.42617
ani	-9.42664
▁create	-9.42682
cc	-9.42697
▁protect	-9.42773
▁Un	-9.42883
▁Sam	-9.42887
▁damage	-9.42995
▁Queen	-9.43098
▁edition	-9.43106
if	-9.43133
ec	-9.43165
▁Old	-9.43256
▁Later	-9.43292
cul	-9.43405
▁People	-9.43433
▁defeated	-9.43436
▁Their	-9.43516
▁Ki	-9.43545
ries	-9.43644
ric	-9.43706
▁Mexico	-9.43713
▁Follow	-9.43713
▁listed	-9.43776
▁Cla	-9.43806
▁units	-9.43807
▁taking	-9.43879
50	-9.43897
▁Bu	-9.43949
ku	-9.44092
shire	-9.44092
zi	-9.44108
▁block	-9.44126
▁generally	-9.44142
▁broadcast	-9.44177
▁Par	-9.4421
▁ended	-9.44254
▁Gar	-9.44418
▁represented	-9.44443
▁king	-9.44451
▁increase	-9.4453
▁Dan	-9.44667
▁shot	-9.44717
▁producer	-9.44741
▁paper	-9.44801
▁Virginia	-9.44808
▁Zealand	-9.44837
▁buildings	-9.44874
▁Va	-9.44904
▁future	-9.4492
▁para	-9.45039
year	-9.45087
ew	-9.45171
20	-9.45208
▁individual	-9.45249
▁Angeles	-9.45254
▁se	-9.45313
▁cast	-9.45354
ight	-9.45362
av	-9.45364
▁Force	-9.45416
▁manager	-9.45429
▁standard	-9.45475
▁text	-9.456
▁1987	-9.45619
▁cl	-9.45725
air	-9.45782
▁older	-9.45824
▁ha	-9.45852
▁Za	-9.45871
▁musical	-9.46008
back	-9.4612
▁Records	-9.46132
▁scene	-9.46156
▁That	-9.46159
can	-9.46273
▁grant	-9.46278
▁label	-9.46289
▁Committee	-9.46301
▁Museum	-9.46301
▁legal	-9.46403
ple	-9.46621
based	-9.46647
▁Province	-9.46712
currently	-9.46715
▁according	-9.46723
town	-9.46862
shi	-9.46869
▁better	-9.47053
▁primary	-9.47083
▁surface	-9.47083
▁Fe	-9.47189
res	-9.4727
▁traditional	-9.47285
tch	-9.47343
▁self	-9.47421
▁Th	-9.4744
▁compet	-9.47463
▁plan	-9.47608
ok	-9.47614
▁Martin	-9.47693
▁meaning	-9.4787
▁o	-9.47936
▁Brown	-9.47959
▁1986	-9.47963
ual	-9.48114
▁higher	-9.48252
▁referr	-9.48284
▁newspaper	-9.48288
▁Edward	-9.48299
▁train	-9.48309
ag	-9.48401
ack	-9.48415
rie	-9.48441
ological	-9.4848
▁western	-9.48545
▁required	-9.4859
vent	-9.48625
▁begin	-9.48652
▁cut	-9.48678
▁student	-9.4871
▁travel	-9.48728
▁Florida	-9.48749
▁related	-9.48756
Y	-9.48762
▁whom	-9.48923
ä	-9.48975
ory	-9.4905
▁Bre	-9.49121
▁Summer	-9.49136
king	-9.49203
▁approach	-9.49211
▁produce	-9.49222
▁Festival	-9.49296
▁today	-9.49337
▁entire	-9.49434
▁property	-9.49436
▁carrie	-9.49507
▁complex	-9.49592
▁genus	-9.49593
▁1984	-9.49599
▁course	-9.49604
▁income	-9.49646
▁woman	-9.49677
ctor	-9.49741
uk	-9.49764
▁nine	-9.49765
▁Pan	-9.50012
ini	-9.5003
▁retired	-9.50103
▁opening	-9.50318
í	-9.50428
▁running	-9.50555
▁husband	-9.50656
▁nation	-9.50665
▁Navy	-9.50666
▁Government	-9.50784
▁bridge	-9.50812
▁Second	-9.50846
▁separate	-9.509
▁try	-9.50954
▁Br	-9.51041
▁fight	-9.51067
▁civil	-9.51084
▁earlier	-9.51085
▁material	-9.51133
▁review	-9.5121
▁companies	-9.51214
▁computer	-9.51296
▁thus	-9.51362
of	-9.51591
▁Northern	-9.51604
▁square	-9.51689
je	-9.51729
▁job	-9.51738
▁studies	-9.51752
▁done	-9.51885
▁compar	-9.51926
ita	-9.52164
▁1985	-9.52174
▁link	-9.52221
bu	-9.52223
ox	-9.52287
ü	-9.52307
▁operations	-9.52398
▁lot	-9.52427
ize	-9.5245
red	-9.52458
her	-9.5247
▁Congress	-9.5247
▁Lord	-9.52527
▁Ku	-9.52624
▁defeat	-9.52665
▁double	-9.52688
sha	-9.52697
▁appearance	-9.52882
▁Mu	-9.52923
▁couple	-9.52999
▁Sha	-9.53086
▁metal	-9.53244
▁pay	-9.53328
▁Middle	-9.5335
▁amount	-9.53466
war	-9.53584
ola	-9.53593
▁bo	-9.53607
▁star	-9.53684
ara	-9.53691
▁Han	-9.53715
▁coast	-9.5376
cre	-9.5379
▁subject	-9.53853
▁construct	-9.53865
▁n	-9.53871
▁Bal	-9.53873
ken	-9.53904
▁Battle	-9.53919
▁closed	-9.53934
ria	-9.54021
▁cover	-9.54067
▁cost	-9.54093
▁Spain	-9.54103
▁shown	-9.54155
▁Board	-9.54155
▁hospital	-9.54184
▁1979	-9.54191
▁always	-9.54274
mit	-9.54277
▁Land	-9.54306
▁meet	-9.54337
▁Prince	-9.54373
▁share	-9.54389
art	-9.54403
ram	-9.54413
▁university	-9.54451
▁1983	-9.54592
sky	-9.54655
▁launched	-9.54703
▁Mark	-9.54703
▁honor	-9.54738
▁prevent	-9.54872
istic	-9.55082
▁Ya	-9.55083
▁Parliament	-9.5512
lli	-9.55319
▁systems	-9.55336
tain	-9.5537
▁voice	-9.55405
▁too	-9.55467
ious	-9.55496
▁face	-9.55512
ase	-9.55593
row	-9.55599
▁larger	-9.55619
▁mainly	-9.55664
▁numerous	-9.55703
▁complete	-9.5576
▁pop	-9.55761
ena	-9.55766
ect	-9.55779
▁themselves	-9.55838
▁sports	-9.5585
▁learn	-9.55904
▁Pu	-9.55915
▁expand	-9.55929
▁Wood	-9.5594
▁longer	-9.56074
vis	-9.56084
▁channel	-9.56154
▁Bank	-9.56167
▁super	-9.56198
cu	-9.56257
▁going	-9.56355
▁Under	-9.56458
▁Joseph	-9.56481
▁graduat	-9.56495
sch	-9.56609
▁gas	-9.56661
▁already	-9.56698
▁increased	-9.56817
▁pi	-9.56832
▁camp	-9.56944
com	-9.57085
cho	-9.57092
▁staff	-9.57109
▁energy	-9.57154
act	-9.57179
▁sa	-9.5726
▁ge	-9.57286
▁tri	-9.57299
▁native	-9.57356
▁Irish	-9.57391
▁Director	-9.57429
pt	-9.57556
▁le	-9.57569
ö	-9.57673
▁raised	-9.57678
▁1982	-9.57711
▁historical	-9.57764
▁makes	-9.5779
▁cities	-9.57844
▁location	-9.58007
▁parents	-9.58008
▁fl	-9.58142
▁terms	-9.58196
▁Bill	-9.58204
▁declar	-9.58211
▁winner	-9.58211
▁Its	-9.58296
ole	-9.5832
stone	-9.58348
▁characters	-9.58368
▁acquir	-9.58441
▁chief	-9.58448
▁Tom	-9.58453
▁street	-9.5858
▁prior	-9.58582
▁1981	-9.5868
▁know	-9.58748
▁Southern	-9.58769
▁things	-9.58786
vin	-9.58792
mate	-9.58878
▁commission	-9.58915
▁Arts	-9.58917
▁Town	-9.58925
▁1972	-9.58959
▁Pennsylvania	-9.59091
▁disease	-9.59091
▁sign	-9.59297
▁eastern	-9.5941
ps	-9.59534
▁might	-9.59535
rin	-9.59538
▁Jewish	-9.59558
bar	-9.59625
▁Love	-9.59629
▁speed	-9.5963
▁medical	-9.59653
▁loss	-9.59769
▁?	-9.59792
▁1978	-9.59847
ux	-9.59996
ition	-9.60011
▁murder	-9.60027
▁app	-9.60048
▁Blue	-9.60073
▁changes	-9.60119
▁Empire	-9.60121
▁lack	-9.60298
xi	-9.60352
▁Valley	-9.6038
▁multi	-9.60512
▁Games	-9.60534
▁artists	-9.60544
▁1974	-9.60552
ski	-9.60654
▁credit	-9.60745
▁additional	-9.60849
dra	-9.60853
▁print	-9.60933
▁hours	-9.60939
▁annual	-9.61019
▁stop	-9.61059
▁1976	-9.61076
ient	-9.61078
▁Lee	-9.61106
▁tax	-9.61137
▁Education	-9.61161
ified	-9.61169
▁key	-9.61184
▁collect	-9.61199
▁direct	-9.61206
▁think	-9.61209
▁programs	-9.6125
▁propos	-9.61278
▁heart	-9.61294
▁origin	-9.61388
▁1940	-9.61418
▁believed	-9.61423
▁concept	-9.61481
ire	-9.61526
▁religious	-9.6159
▁Railway	-9.61594
uff	-9.61725
▁kind	-9.61742
▁35	-9.61769
▁mu	-9.61775
light	-9.61796
▁senior	-9.61877
lon	-9.61885
▁Over	-9.61912
▁takes	-9.61921
▁Wales	-9.61953
▁source	-9.61983
hy	-9.62197
▁particularly	-9.62257
▁activities	-9.62261
▁Line	-9.62309
▁Russia	-9.62349
▁particular	-9.62361
▁em	-9.62373
ets	-9.62376
▁col	-9.62446
▁fall	-9.62478
▁Fort	-9.6253
form	-9.62562
des	-9.62597
ture	-9.62697
▁drive	-9.62715
▁majority	-9.62834
ā	-9.62839
▁Pacific	-9.62839
lie	-9.62873
rt	-9.62916
▁Gra	-9.62944
cher	-9.6296
▁marriage	-9.62984
low	-9.63004
▁Olympics	-9.63035
▁forced	-9.63158
▁wing	-9.63186
ane	-9.63206
▁remov	-9.63241
ants	-9.63258
▁call	-9.63386
▁room	-9.634
▁port	-9.63402
▁65	-9.63466
▁Ru	-9.63486
▁Christ	-9.63514
▁officer	-9.63517
▁middle	-9.63569
▁federal	-9.63616
▁Inter	-9.6362
▁Cal	-9.6366
▁films	-9.63688
▁effect	-9.63759
head	-9.63783
ugh	-9.63798
▁specific	-9.63843
▁Big	-9.63888
▁poor	-9.63904
▁evidence	-9.63908
▁1930	-9.63928
▁Dutch	-9.63972
▁Governor	-9.64006
iz	-9.64014
mann	-9.6405
▁victory	-9.64055
ssociated	-9.6413
▁composed	-9.64153
▁Team	-9.64182
▁troops	-9.64305
▁matches	-9.64315
▁Latin	-9.64354
▁bomb	-9.64373
▁Chief	-9.64411
cle	-9.64437
▁Com	-9.64441
▁Poland	-9.64468
▁issues	-9.64644
▁male	-9.64676
▁seem	-9.64738
▁1975	-9.64754
east	-9.64867
▁Earth	-9.64892
▁friend	-9.64961
▁store	-9.6498
▁heavy	-9.6499
vers	-9.65008
▁45	-9.65011
▁interview	-9.65044
▁1945	-9.65052
af	-9.65084
▁Tra	-9.65121
▁selected	-9.65195
▁Another	-9.65237
ular	-9.65261
▁ball	-9.65375
gue	-9.65474
▁Van	-9.65489
▁Women	-9.65491
▁display	-9.65547
▁problems	-9.65553
▁box	-9.65567
▁enough	-9.65591
▁difficult	-9.65745
▁deep	-9.65765
10	-9.65765
▁concert	-9.65833
▁settlement	-9.65835
▁Republican	-9.65839
▁gun	-9.65842
▁Mer	-9.65848
▁Awards	-9.65884
▁flight	-9.65932
az	-9.66007
▁function	-9.66018
▁turned	-9.66113
▁blue	-9.66133
▁Boy	-9.66139
ised	-9.66154
ington	-9.66179
▁obtain	-9.66187
llar	-9.66212
▁Cho	-9.66259
▁Frank	-9.66282
▁cap	-9.66301
▁dance	-9.66303
▁partner	-9.66329
▁build	-9.66373
▁manag	-9.66468
▁1968	-9.66489
▁More	-9.66552
▁Service	-9.66569
▁Britain	-9.66588
▁Er	-9.66678
▁uses	-9.66866
▁60	-9.66881
ye	-9.66907
▁goals	-9.66925
▁ho	-9.66957
▁employ	-9.66988
▁—	-9.67002
press	-9.67071
▁Qu	-9.67083
▁Jack	-9.67202
▁wood	-9.67239
▁financial	-9.67288
▁minutes	-9.67293
▁machine	-9.67338
▁status	-9.6744
lor	-9.67446
use	-9.67573
▁Yu	-9.67648
tern	-9.67731
ery	-9.67741
ata	-9.67788
becoming	-9.67889
zo	-9.67899
eg	-9.6793
▁starr	-9.67955
▁1977	-9.67956
▁management	-9.6808
▁limited	-9.68091
▁Science	-9.68192
▁mountain	-9.68255
nch	-9.68274
▁fish	-9.68344
▁oil	-9.68426
▁feel	-9.68457
▁200	-9.6851
▁lake	-9.6855
pen	-9.6856
▁value	-9.68578
▁Pat	-9.6859
▁leaving	-9.68662
▁parish	-9.68678
▁Bel	-9.68707
bre	-9.68811
▁Both	-9.6882
Z	-9.68835
br	-9.6884
illa	-9.68853
ó	-9.68868
▁failed	-9.68979
nie	-9.68982
▁recent	-9.69004
▁code	-9.6909
▁1973	-9.69183
▁prison	-9.69259
▁mark	-9.69286
▁whole	-9.69364
▁Pakistan	-9.69433
▁idea	-9.69459
▁stone	-9.69468
▁care	-9.69594
▁Sta	-9.69629
▁Tour	-9.69657
▁represent	-9.69683
▁serving	-9.69692
bin	-9.69741
▁remains	-9.69832
▁claimed	-9.6985
ray	-9.69932
▁leave	-9.70012
▁Pol	-9.70089
▁express	-9.70123
▁write	-9.70138
▁talk	-9.70169
▁expect	-9.70169
▁weeks	-9.70197
ash	-9.70204
▁minor	-9.7038
▁supported	-9.70385
▁Mr	-9.70456
▁claim	-9.70542
▁Stra	-9.70572
ob	-9.70702
▁website	-9.70733
▁Je	-9.70738
▁1969	-9.70845
▁Cre	-9.70854
▁Will	-9.70862
cent	-9.70901
▁gr	-9.70954
▁promot	-9.7098
ette	-9.7111
▁refus	-9.71156
▁Scotland	-9.71205
▁cases	-9.71256
▁theory	-9.71289
▁suggest	-9.71317
▁Shi	-9.71324
▁starting	-9.71394
bert	-9.71426
▁foreign	-9.71524
▁words	-9.71528
▁1971	-9.71529
▁+	-9.71573
par	-9.71647
▁ta	-9.71667
▁Also	-9.71714
▁Radio	-9.71727
▁earned	-9.71766
▁Tre	-9.71809
▁1967	-9.71898
oon	-9.71926
▁administrative	-9.71996
▁actress	-9.72103
▁Cu	-9.72138
▁disc	-9.72157
▁variety	-9.72172
▁regional	-9.72217
ped	-9.72222
▁Gold	-9.72247
▁Dar	-9.72342
▁divided	-9.72353
▁lines	-9.72357
▁III	-9.72368
▁Public	-9.72581
▁firm	-9.72582
▁discovered	-9.72633
▁professor	-9.72634
gra	-9.72646
lam	-9.72677
burg	-9.72682
ible	-9.72784
▁hold	-9.7284
gre	-9.72898
▁Georgia	-9.72962
▁dead	-9.73022
▁technology	-9.73061
▁trans	-9.731
80	-9.73245
▁presented	-9.73256
▁visit	-9.73313
▁Carolina	-9.73334
▁adult	-9.73336
▁Young	-9.73356
▁1920	-9.7336
▁leg	-9.73386
ee	-9.73527
itt	-9.73725
▁our	-9.73753
ability	-9.73897
▁32	-9.73918
▁ancient	-9.7403
hal	-9.7406
▁effective	-9.7407
▁probabl	-9.74087
▁Sweden	-9.74301
▁initially	-9.74315
▁society	-9.74355
▁floor	-9.74355
▁reason	-9.74404
ala	-9.74454
▁editor	-9.74471
▁Vo	-9.7451
cker	-9.7454
▁Book	-9.74544
▁Democratic	-9.74609
▁Final	-9.74732
ju	-9.74789
▁j	-9.74812
▁miles	-9.74855
▁bus	-9.74885
▁Fo	-9.74928
▁Kar	-9.74989
▁physical	-9.75063
▁temperature	-9.75063
uch	-9.75137
▁smaller	-9.75188
▁Each	-9.75291
ura	-9.75319
▁stars	-9.75412
rew	-9.75467
▁dedicat	-9.75504
sur	-9.75555
▁response	-9.75555
▁cell	-9.75556
▁policy	-9.75556
▁1964	-9.75564
▁Nor	-9.75566
Q	-9.756
▁Sc	-9.75675
▁here	-9.75688
▁forms	-9.75722
▁Ram	-9.75774
▁nearly	-9.75819
ping	-9.7584
▁quarter	-9.75988
▁suffer	-9.76054
▁Ve	-9.76091
▁big	-9.76103
▁Asia	-9.762
–0	-9.7621
▁kill	-9.76214
lia	-9.76232
ax	-9.76334
▁Pri	-9.764
▁Eastern	-9.7644
▁target	-9.76493
▁master	-9.76532
ō	-9.76549
▁covered	-9.76674
grew	-9.76753
▁Pla	-9.76818
▁demand	-9.76831
▁Tor	-9.76838
60	-9.7693
▁platform	-9.76937
▁1965	-9.76947
▁Ed	-9.76965
▁types	-9.76982
ches	-9.77031
▁individuals	-9.77039
▁Commission	-9.77045
▁nature	-9.7706
▁bad	-9.77061
▁potential	-9.77106
▁direction	-9.77106
bal	-9.77242
▁Airlines	-9.7733
▁lies	-9.77336
▁museum	-9.77384
▁Four	-9.77461
▁remaining	-9.77464
▁Prime	-9.77498
▁agent	-9.77501
▁trial	-9.77542
30	-9.77574
ought	-9.77584
▁drug	-9.77608
▁1966	-9.77617
▁Long	-9.77651
▁nearby	-9.77675
▁th	-9.77702
▁pick	-9.77716
▁names	-9.77738
wing	-9.77742
▁cur	-9.77819
▁soldiers	-9.77832
▁Ken	-9.77901
▁mass	-9.77914
▁council	-9.77994
▁festival	-9.78113
▁l	-9.78166
▁Assembly	-9.78226
▁Fri	-9.78267
▁Nu	-9.78335
▁multiple	-9.78348
▁stories	-9.78395
▁explain	-9.78565
yn	-9.78588
▁walk	-9.78747
▁Home	-9.78775
▁friends	-9.78875
work	-9.78977
fo	-9.79052
▁Ye	-9.79113
bl	-9.79144
hr	-9.79164
▁conditions	-9.79174
▁operation	-9.79217
vel	-9.7925
▁defin	-9.79292
▁table	-9.79293
▁transport	-9.79307
▁defend	-9.79331
▁Olympic	-9.79358
▁noted	-9.79391
▁distance	-9.79417
cing	-9.79436
▁products	-9.79484
▁cultural	-9.79501
▁Ohio	-9.79532
▁Civil	-9.79534
▁dark	-9.79544
▁households	-9.7955
▁Reg	-9.79603
mic	-9.79623
▁positive	-9.7976
▁lives	-9.79838
▁judge	-9.79875
▁regard	-9.79876
▁receive	-9.79886
cit	-9.799
like	-9.79902
mal	-9.80001
wo	-9.80005
°	-9.80047
▁drama	-9.80101
▁fifth	-9.80104
hen	-9.80145
▁row	-9.80189
▁responsible	-9.80219
▁Part	-9.80262
▁Bell	-9.80361
ult	-9.80518
ain	-9.80539
▁BC	-9.80572
▁treatment	-9.80643
set	-9.80645
ates	-9.80675
▁gu	-9.80682
▁Boston	-9.80706
▁quickly	-9.8071
▁convert	-9.80753
pri	-9.80753
▁spread	-9.80766
▁Major	-9.80768
lum	-9.80774
▁Times	-9.8092
▁Conference	-9.80921
cur	-9.80958
fer	-9.81132
▁Ber	-9.81154
▁Fer	-9.81167
▁results	-9.81183
▁Jackson	-9.81186
▁USA	-9.81196
▁Little	-9.81202
▁brand	-9.81228
▁primari	-9.81318
▁equal	-9.81319
ecause	-9.81362
▁Research	-9.81435
▁cr	-9.81439
▁Val	-9.81444
▁Ze	-9.81454
▁Mel	-9.8152
▁notable	-9.81534
tric	-9.81538
▁Tro	-9.81583
rk	-9.81589
▁overall	-9.81718
▁green	-9.81786
▁semi	-9.81851
▁Mad	-9.81873
▁Life	-9.81898
▁birth	-9.81951
▁Em	-9.82024
▁latter	-9.82046
▁arrived	-9.82145
qua	-9.82189
▁Far	-9.82267
▁concern	-9.82298
▁lo	-9.82305
▁Phil	-9.82346
▁mis	-9.8239
board	-9.82478
▁Muslim	-9.8255
▁elements	-9.82589
▁saying	-9.82652
▁Theatre	-9.8267
▁ships	-9.82678
40	-9.82749
▁commonly	-9.8275
▁inside	-9.82763
ute	-9.82783
▁median	-9.82783
ale	-9.82821
▁tradition	-9.82897
▁believe	-9.82898
▁officially	-9.82952
▁Michigan	-9.83019
▁ice	-9.83059
▁directly	-9.83079
top	-9.83085
▁crew	-9.83112
pro	-9.8315
▁pressure	-9.83154
▁Bro	-9.83229
▁Coast	-9.8326
▁females	-9.83265
▁Au	-9.83289
▁format	-9.83306
▁likely	-9.83309
▁blood	-9.83316
itch	-9.83317
ón	-9.83327
▁crime	-9.83333
ano	-9.83368
▁gene	-9.83424
cer	-9.83536
▁prominent	-9.83553
▁reference	-9.83565
▁pair	-9.83567
▁whether	-9.83672
▁letter	-9.8368
lar	-9.83696
law	-9.83781
▁1963	-9.83799
▁growth	-9.83936
▁houses	-9.84237
▁escape	-9.84275
cor	-9.84286
▁branch	-9.84291
▁Free	-9.8433
▁Before	-9.84389
▁product	-9.84396
▁Creek	-9.84401
▁Secretary	-9.84458
▁na	-9.84496
char	-9.84547
▁wind	-9.84565
▁Camp	-9.84622
▁Sand	-9.84656
▁mean	-9.84665
▁Show	-9.84685
▁lu	-9.84784
▁solo	-9.84873
▁plans	-9.85067
▁invit	-9.85106
ili	-9.85127
worth	-9.85138
eng	-9.85165
▁par	-9.85205
bel	-9.85284
▁highly	-9.85332
▁Ser	-9.85389
▁Rome	-9.85459
▁minister	-9.85488
▁agreement	-9.85495
▁Cra	-9.85534
▁programme	-9.85541
▁problem	-9.85563
▁limit	-9.85566
▁BBC	-9.85579
è	-9.85604
▁content	-9.85778
▁page	-9.85804
▁method	-9.85888
▁Columbia	-9.859
▁aged	-9.859
app	-9.85964
ama	-9.85981
▁CD	-9.86006
▁confirm	-9.86082
▁Mil	-9.86092
arm	-9.86112
▁Francisco	-9.86172
▁80	-9.8618
▁Bridge	-9.86198
▁stay	-9.86231
▁Top	-9.86263
play	-9.86268
▁Mill	-9.86343
▁pa	-9.86362
▁extensive	-9.86388
▁academic	-9.86449
nic	-9.86452
▁Championships	-9.86454
12	-9.86523
▁”	-9.86529
▁plann	-9.86562
▁feet	-9.86568
cast	-9.86707
▁belong	-9.8671
▁Kh	-9.86741
▁plants	-9.86769
och	-9.86787
oo	-9.86831
ella	-9.86861
▁historic	-9.86862
▁founder	-9.86889
▁Jersey	-9.8694
▁str	-9.8694
ock	-9.86948
▁stations	-9.86973
▁Scott	-9.86984
▁union	-9.86985
din	-9.8701
▁Ol	-9.87053
▁guitar	-9.8706
▁matter	-9.87172
kept	-9.8719
▁Foundation	-9.87209
▁press	-9.87238
▁pen	-9.87268
bra	-9.87276
▁percent	-9.87308
ification	-9.87363
▁animals	-9.87369
▁connect	-9.87377
▁Out	-9.87379
▁question	-9.87481
▁Mus	-9.875
gon	-9.87547
▁describe	-9.87563
▁sail	-9.87564
mor	-9.87566
▁association	-9.87619
▁estate	-9.87636
▁residents	-9.87659
sis	-9.87667
▁cor	-9.87669
▁Ran	-9.87734
▁basketball	-9.87805
▁Cy	-9.87832
▁Israel	-9.87836
mu	-9.87893
▁Senate	-9.87896
▁era	-9.87913
▁conference	-9.87939
▁fellow	-9.87944
▁Wil	-9.87957
kh	-9.87974
▁Jones	-9.87998
▁Master	-9.88055
▁maintain	-9.88067
▁languages	-9.88094
▁bring	-9.88129
▁path	-9.88157
▁chemical	-9.88178
90	-9.88232
▁destroyed	-9.88238
▁Song	-9.88282
▁Sh	-9.88345
▁Cross	-9.88357
▁Illinois	-9.88365
▁conflict	-9.88365
▁1944	-9.88379
▁Fre	-9.88392
▁says	-9.88406
▁Three	-9.88435
▁grow	-9.88467
▁bit	-9.8851
▁spring	-9.88578
▁reform	-9.88585
renamed	-9.88647
▁1948	-9.88688
▁Order	-9.88758
mat	-9.88875
▁split	-9.88877
▁widely	-9.88881
▁situation	-9.88928
▁Of	-9.88929
▁step	-9.88972
▁boat	-9.89079
▁finish	-9.89083
▁reflect	-9.89117
▁Is	-9.89145
era	-9.89151
▁occur	-9.89281
▁Victoria	-9.89291
class	-9.89303
sel	-9.89364
▁news	-9.8938
bury	-9.8938
bro	-9.89422
west	-9.89432
▁nu	-9.89441
▁36	-9.89494
▁symbol	-9.89495
▁search	-9.89502
▁tracks	-9.89553
▁attention	-9.89592
for	-9.89703
▁assign	-9.8974
▁address	-9.89811
▁transferred	-9.89818
▁extended	-9.89838
▁Ham	-9.89897
▁Born	-9.89898
▁charge	-9.89963
ome	-9.89986
▁environment	-9.90001
▁article	-9.9001
▁volume	-9.90065
giving	-9.90101
▁1962	-9.90136
▁guest	-9.90158
ood	-9.90249
▁Cri	-9.90333
▁records	-9.90446
▁facilit	-9.90464
▁yet	-9.9047
cal	-9.90483
rum	-9.90484
▁Asian	-9.90621
▁Jean	-9.9074
▁Joe	-9.90768
▁perform	-9.90779
▁1961	-9.90902
del	-9.90915
▁candidate	-9.90935
▁signal	-9.90991
▁Elizabeth	-9.91021
▁Jan	-9.91033
▁recently	-9.91056
▁Arm	-9.91152
▁moving	-9.91184
▁youth	-9.91185
long	-9.9122
▁Water	-9.91238
▁cancer	-9.91245
25	-9.91276
▁shape	-9.91326
nam	-9.91338
▁Inc	-9.91362
ada	-9.91395
uck	-9.91469
▁grade	-9.91521
▁Time	-9.91543
▁true	-9.91597
▁System	-9.91599
▁simple	-9.91664
▁Sho	-9.91694
▁Centre	-9.91753
▁1956	-9.91803
▁Wal	-9.91959
aries	-9.91961
▁Berlin	-9.9197
▁Iran	-9.92035
▁foot	-9.92044
yer	-9.92058
ore	-9.92068
▁1941	-9.92127
tes	-9.92146
▁Good	-9.92219
▁del	-9.92229
▁assist	-9.92257
▁Polish	-9.9228
▁Gal	-9.92337
▁forward	-9.92379
▁formerly	-9.92403
▁attract	-9.92413
bor	-9.92432
▁Luc	-9.92548
▁Station	-9.92548
▁1942	-9.92651
▁mixed	-9.92675
▁1946	-9.92712
▁Johnson	-9.92755
▁immediately	-9.92805
▁Work	-9.92883
fri	-9.92906
▁va	-9.92908
▁Scottish	-9.92916
▁Sydney	-9.92962
▁pe	-9.93004
▁watch	-9.93028
▁request	-9.93058
▁conducted	-9.93074
,3	-9.93092
▁difference	-9.931
▁something	-9.93104
▁Open	-9.93182
bon	-9.93239
ull	-9.93253
▁Pra	-9.93265
cation	-9.93266
▁Today	-9.93278
ude	-9.9328
▁Series	-9.93283
▁Kan	-9.93296
▁forest	-9.93302
▁Santa	-9.93338
▁nominated	-9.93356
CA	-9.93358
▁Char	-9.93391
▁90	-9.93415
▁follows	-9.93436
hn	-9.93439
▁Dun	-9.93469
▁Comp	-9.93492
▁executive	-9.93492
ene	-9.93528
▁Ash	-9.9353
nan	-9.93543
▁feed	-9.93546
urg	-9.93671
▁flow	-9.93783
▁Sk	-9.93787
▁contest	-9.93822
▁su	-9.93861
▁levels	-9.93885
▁Total	-9.93936
cus	-9.93938
▁buri	-9.93939
▁except	-9.93987
▁compete	-9.94059
mont	-9.94107
cia	-9.94112
▁cat	-9.94122
▁Game	-9.94164
▁h	-9.94176
nce	-9.94214
▁discover	-9.94362
ese	-9.94372
21	-9.94375
▁initial	-9.94394
▁Pen	-9.94417
▁silver	-9.94423
rus	-9.94447
▁Spe	-9.94467
put	-9.9447
▁picture	-9.94543
▁activity	-9.94614
pha	-9.9462
avi	-9.94654
▁70	-9.94678
▁33	-9.94777
ero	-9.94809
▁numbers	-9.94848
ua	-9.94914
▁44	-9.94936
▁sexual	-9.9498
▁Brazil	-9.951
TV	-9.95105
▁tower	-9.95148
cat	-9.95185
▁administration	-9.95209
▁captain	-9.95218
▁security	-9.95228
▁Post	-9.95263
▁featuring	-9.95275
gin	-9.9535
ora	-9.95351
▁secret	-9.95385
▁occasion	-9.95392
ose	-9.95399
ula	-9.95411
▁campus	-9.95458
eu	-9.95465
▁Mount	-9.95525
SA	-9.95622
▁ability	-9.95645
▁retain	-9.95654
▁Like	-9.95669
▁Carl	-9.9567
▁workers	-9.95695
ato	-9.95704
su	-9.95705
▁driver	-9.95737
▁basis	-9.95774
yan	-9.95791
▁actually	-9.95792
▁contact	-9.95812
▁Office	-9.95831
▁recover	-9.95852
▁assistant	-9.95856
▁tried	-9.95909
15	-9.95911
▁Bishop	-9.95947
▁image	-9.95968
▁density	-9.96014
▁intended	-9.96014
▁Ali	-9.96034
▁Ten	-9.9606
var	-9.96071
▁map	-9.96131
▁capacity	-9.96148
▁composer	-9.96148
▁organized	-9.96189
▁Federal	-9.96216
▁screen	-9.96219
▁poet	-9.9623
▁fell	-9.96261
▁participated	-9.96263
▁traffic	-9.96284
rick	-9.96339
▁temple	-9.96351
▁Williams	-9.96395
▁hall	-9.96398
▁comedy	-9.96432
rat	-9.96433
▁places	-9.96439
▁bill	-9.96454
▁Ter	-9.96481
ks	-9.96574
▁establish	-9.96585
▁say	-9.96618
▁oldest	-9.96648
▁FC	-9.96681
▁Alexander	-9.96691
▁1957	-9.96698
▁portion	-9.96742
▁Korea	-9.9675
▁qua	-9.96875
tel	-9.96976
▁Corps	-9.97066
phy	-9.97073
▁adopted	-9.97167
18	-9.97192
▁acting	-9.97231
▁opera	-9.97243
gent	-9.9729
▁price	-9.9731
▁elections	-9.97332
▁1939	-9.97385
ira	-9.97391
▁seasons	-9.97428
▁Up	-9.97436
70	-9.97436
▁Avenue	-9.97438
▁draft	-9.97439
▁critical	-9.97447
▁cells	-9.97485
▁serious	-9.97507
rid	-9.97508
len	-9.97585
eb	-9.97627
▁Duke	-9.97681
▁Swedish	-9.97712
▁Sub	-9.97766
▁500	-9.9777
▁McC	-9.97831
▁operating	-9.97861
▁1947	-9.97864
▁pilot	-9.97924
▁Ste	-9.9793
▁require	-9.97934
▁typically	-9.97949
▁promote	-9.97989
▁captured	-9.98003
oid	-9.98014
▁wall	-9.98019
▁leaves	-9.98056
▁1959	-9.98065
American	-9.98073
▁stream	-9.98106
▁count	-9.98135
▁appearances	-9.98161
▁micro	-9.98203
▁Ban	-9.98225
▁acid	-9.98236
gh	-9.98307
▁draw	-9.9831
▁officers	-9.98341
▁upper	-9.98389
▁Mat	-9.9839
ave	-9.98399
▁effects	-9.98422
▁principal	-9.98469
▁online	-9.98474
anda	-9.98495
ral	-9.98505
▁agreed	-9.98608
lla	-9.98611
pos	-9.98612
▁taught	-9.98682
▁stand	-9.98781
lock	-9.98799
▁Hospital	-9.98814
til	-9.98816
ans	-9.98837
ston	-9.98896
RA	-9.98899
stead	-9.98931
kar	-9.98946
▁Hy	-9.98974
▁recognized	-9.98975
aya	-9.99057
▁champion	-9.99069
▁avoid	-9.99163
▁twice	-9.99231
▁painting	-9.99238
▁figure	-9.99259
▁tree	-9.99278
11	-9.99297
▁governor	-9.99318
▁Fu	-9.99347
nal	-9.99363
▁urban	-9.9937
▁1958	-9.99379
▁strike	-9.9938
ich	-9.9946
▁1955	-9.9952
rit	-9.99526
oli	-9.99577
▁joint	-9.99587
▁risk	-9.9959
▁reserve	-9.99649
▁broke	-9.99664
▁weight	-9.99689
19	-9.9975
▁Win	-9.99759
▁storm	-9.99789
fu	-9.99917
▁teaching	-9.99981
▁Professor	-9.99999
▁scale	-10.0007
▁surrounding	-10.0008
▁purpose	-10.0009
▁Hol	-10.0019
▁digital	-10.002
▁audience	-10.0021
ologist	-10.0023
▁rep	-10.0025
▁representative	-10.0029
▁door	-10.0039
▁territory	-10.0042
my	-10.0043
oth	-10.0044
▁graduate	-10.0047
▁industrial	-10.0049
▁protein	-10.0049
▁Korean	-10.0051
▁unique	-10.0052
▁promotion	-10.0058
▁Member	-10.0063
▁Vol	-10.0072
▁rules	-10.0078
eh	-10.008
▁paint	-10.008
tar	-10.0081
▁theatre	-10.0082
▁alone	-10.0083
▁document	-10.0088
▁translat	-10.0096
eo	-10.0096
ties	-10.0096
ros	-10.0097
▁Spring	-10.0113
▁combined	-10.0127
kan	-10.0128
-1	-10.0131
▁estimated	-10.0137
▁flag	-10.0142
room	-10.0143
▁Sel	-10.0146
▁Kong	-10.0151
teen	-10.0154
poli	-10.0156
▁Ren	-10.0161
▁housing	-10.0163
▁Jr	-10.0166
▁Switzerland	-10.017
▁bought	-10.0172
▁committee	-10.0177
▁roles	-10.0177
▁quality	-10.0178
zy	-10.018
water	-10.018
▁permanent	-10.0184
▁software	-10.0191
pon	-10.0198
▁Mont	-10.0203
spired	-10.0209
▁fair	-10.021
,6	-10.0211
▁Highway	-10.0213
bul	-10.0217
▁extra	-10.0218
▁1952	-10.0221
▁formation	-10.0221
▁Andrew	-10.0222
wan	-10.0225
▁Wild	-10.0226
▁races	-10.0227
▁connection	-10.0229
17	-10.0232
▁protest	-10.0235
▁Health	-10.0235
▁growing	-10.0238
gy	-10.0239
▁Ger	-10.0244
▁Maria	-10.0244
▁ski	-10.0247
cycl	-10.025
▁Night	-10.025
▁prais	-10.0256
yo	-10.026
▁Tal	-10.0265
▁burn	-10.0268
▁wave	-10.0269
▁aim	-10.0274
▁headquarters	-10.028
▁leaders	-10.0283
run	-10.0283
▁Massachusetts	-10.0284
▁depict	-10.0285
▁mine	-10.029
▁reviews	-10.0291
▁ring	-10.0292
▁launch	-10.0294
▁Justice	-10.0299
▁seek	-10.0305
▁mile	-10.0308
▁journalist	-10.0309
▁Cam	-10.0311
▁piece	-10.0315
▁sentence	-10.0317
▁communities	-10.032
▁1954	-10.0321
▁spot	-10.0322
▁therefore	-10.0329
▁van	-10.0329
▁Bor	-10.0329
tom	-10.0329
▁Cat	-10.0331
▁object	-10.0331
▁1943	-10.0336
▁pl	-10.0345
ces	-10.0348
▁Even	-10.0351
ith	-10.0354
more	-10.0363
▁Op	-10.0369
▁Hong	-10.0372
▁improv	-10.0379
▁bra	-10.038
▁Ontario	-10.0386
▁Gro	-10.039
▁wild	-10.0393
▁generation	-10.0394
▁condition	-10.0395
ography	-10.0396
▁Tar	-10.0398
▁airport	-10.0398
▁twenty	-10.04
▁Cro	-10.0402
▁Route	-10.0406
ort	-10.0408
▁teacher	-10.0409
▁footballer	-10.0417
▁About	-10.0418
tag	-10.0428
▁Light	-10.043
▁occurred	-10.0431
▁billion	-10.0434
▁males	-10.044
▁merg	-10.0448
▁Daniel	-10.046
▁1953	-10.046
IS	-10.0464
05	-10.0465
▁Bob	-10.0476
ball	-10.0478
▁Ci	-10.048
dal	-10.0485
▁shop	-10.0487
▁follow	-10.05
▁equipment	-10.0503
▁parties	-10.0504
▁dog	-10.0505
▁challenge	-10.0507
▁Atlantic	-10.051
iya	-10.0511
ali	-10.0514
▁Hav	-10.0516
▁Hot	-10.0523
tru	-10.0523
▁situated	-10.0525
▁34	-10.0527
▁Ven	-10.053
▁1949	-10.0534
▁ban	-10.0537
▁efforts	-10.0539
▁literature	-10.0547
▁rise	-10.0549
▁respectively	-10.0549
die	-10.0551
▁Historic	-10.0558
▁largely	-10.0559
ban	-10.0565
▁‘	-10.0572
▁Emperor	-10.0577
16	-10.058
bot	-10.0583
▁owner	-10.0584
▁girl	-10.0587
▁Not	-10.0587
▁Field	-10.0593
▁setting	-10.0593
▁creation	-10.0595
▁coming	-10.0603
▁Im	-10.0603
ians	-10.0604
arian	-10.0605
▁Dam	-10.0608
▁projects	-10.0613
▁Premier	-10.0614
▁knowledge	-10.0614
▁winter	-10.0615
itz	-10.062
▁paid	-10.0626
▁mentioned	-10.0628
▁Mid	-10.063
▁sex	-10.063
▁Castle	-10.063
▁hill	-10.0631
ller	-10.0634
▁bear	-10.0641
▁Billboard	-10.0645
▁Fair	-10.0647
01	-10.0648
▁comic	-10.066
▁basic	-10.0664
▁enjoy	-10.0667
▁Ocean	-10.0667
07	-10.067
▁Human	-10.0673
ency	-10.0674
▁Tim	-10.0676
dale	-10.0676
▁64	-10.0677
cro	-10.0679
CC	-10.0687
pplied	-10.0688
▁Sol	-10.0697
▁tribe	-10.0701
▁Gen	-10.0705
▁hir	-10.071
▁distribution	-10.0712
dar	-10.0712
▁hotel	-10.0716
▁sport	-10.072
fin	-10.0724
▁Ac	-10.0724
▁architect	-10.0733
rag	-10.0733
▁broad	-10.0734
▁alongside	-10.0734
▁Prize	-10.0736
▁Count	-10.074
▁replace	-10.0748
▁purchas	-10.0758
▁Airport	-10.0762
▁Lady	-10.0766
ado	-10.0768
▁doctor	-10.0773
▁•	-10.0773
pic	-10.0774
▁Fr	-10.0774
▁rival	-10.078
▁rural	-10.0788
▁Fox	-10.0794
▁felt	-10.0795
▁operat	-10.0801
graph	-10.0802
▁ob	-10.0805
▁am	-10.0808
▁horse	-10.081
89	-10.0813
▁tu	-10.0816
▁greater	-10.0816
cht	-10.0817
▁impact	-10.082
where	-10.0823
▁sources	-10.0831
▁transfer	-10.084
▁benefit	-10.084
▁Power	-10.0842
▁becomes	-10.0846
▁Mexican	-10.0856
part	-10.0858
▁Among	-10.086
rant	-10.086
▁identified	-10.0861
▁simply	-10.0863
igh	-10.0864
dom	-10.0866
▁highway	-10.087
▁mode	-10.0871
▁pattern	-10.0871
▁religion	-10.0879
▁creat	-10.088
▁Oxford	-10.0894
▁gives	-10.0897
amp	-10.0897
▁End	-10.0899
▁Stone	-10.09
▁younger	-10.0901
š	-10.0902
▁1951	-10.091
▁reduced	-10.091
own	-10.0911
▁Av	-10.0912
▁Band	-10.0915
plo	-10.0936
▁Netherlands	-10.094
▁Trans	-10.0944
▁send	-10.0946
▁showed	-10.0946
▁communication	-10.0947
▁heat	-10.095
▁loan	-10.0954
▁Philip	-10.0957
▁completely	-10.0958
▁Shar	-10.0959
▁Jim	-10.0962
▁Toronto	-10.0971
97	-10.0972
▁Champion	-10.0976
▁Mountain	-10.0983
▁purchase	-10.0993
▁fighting	-10.0997
▁Supreme	-10.1002
▁effort	-10.1002
struc	-10.1003
▁mill	-10.1009
▁motor	-10.1013
▁someone	-10.1014
uri	-10.1015
right	-10.1017
▁normal	-10.102
▁etc	-10.1021
pect	-10.1026
án	-10.1027
fra	-10.1028
▁exhibition	-10.1029
▁Tru	-10.1035
▁connected	-10.1037
▁peak	-10.104
▁Chris	-10.1042
▁da	-10.1042
▁Var	-10.1043
▁titled	-10.1043
▁comment	-10.1046
▁cars	-10.1046
▁Philadelphia	-10.1048
▁scientific	-10.1048
chan	-10.1051
ime	-10.1053
▁powerful	-10.1055
▁alternative	-10.1056
▁Sports	-10.1057
▁rapid	-10.1059
▁copies	-10.1064
rich	-10.1066
▁suit	-10.1072
▁Clark	-10.1074
dri	-10.1075
▁library	-10.108
▁exchange	-10.108
round	-10.1081
▁respect	-10.1084
▁Mur	-10.1093
▁Captain	-10.1096
ei	-10.1098
▁colour	-10.1105
▁Arch	-10.1106
▁flat	-10.1115
▁fine	-10.1117
▁ne	-10.1117
matic	-10.1124
spec	-10.1132
▁yellow	-10.1134
aka	-10.1135
chen	-10.1136
▁household	-10.1138
▁morning	-10.115
▁Hal	-10.1151
▁save	-10.1152
ically	-10.1152
▁classes	-10.1155
▁climate	-10.1158
▁38	-10.1162
▁Tan	-10.1165
▁Several	-10.1166
▁royal	-10.1166
▁commander	-10.1175
rap	-10.1175
▁fuel	-10.1179
AA	-10.118
▁sales	-10.1182
▁castle	-10.1184
▁Special	-10.119
ific	-10.1193
▁theme	-10.1199
▁1938	-10.1199
94	-10.1202
bus	-10.1203
sey	-10.1204
kov	-10.1204
▁historian	-10.1205
▁custom	-10.1206
▁background	-10.1207
▁presence	-10.1214
14	-10.1217
place	-10.1219
▁solution	-10.1221
gal	-10.1221
▁task	-10.1224
87	-10.1226
iff	-10.1227
tis	-10.1228
▁chosen	-10.1229
92	-10.1236
isation	-10.1248
▁Del	-10.1248
▁leadership	-10.1264
▁boy	-10.1266
wick	-10.127
▁Corporation	-10.1277
▁Down	-10.1277
▁resign	-10.1279
▁Program	-10.1286
▁option	-10.1287
meter	-10.1289
▁Son	-10.1295
ough	-10.1296
–2	-10.1302
▁strip	-10.1302
▁1936	-10.1303
▁restor	-10.1304
▁iron	-10.1307
▁destroy	-10.1309
▁tank	-10.131
▁spin	-10.1312
▁yards	-10.1312
AC	-10.1313
ink	-10.1315
▁engineer	-10.1317
▁Kal	-10.1318
▁Hay	-10.1319
09	-10.132
dia	-10.132
▁Marine	-10.1321
hood	-10.1331
▁Development	-10.1333
tha	-10.1335
onic	-10.1335
zar	-10.1337
▁edge	-10.1338
bit	-10.1342
▁mm	-10.1348
▁fun	-10.1352
▁peace	-10.1356
06	-10.136
▁Rose	-10.1375
▁Miss	-10.1378
▁Ag	-10.1379
▁episodes	-10.1387
▁inform	-10.14
▁Main	-10.1402
▁Francis	-10.1403
▁Area	-10.1405
▁cricket	-10.1405
▁column	-10.1405
▁Mike	-10.1407
▁straight	-10.1413
▁supply	-10.1413
▁garden	-10.1413
▁arrested	-10.1417
att	-10.1431
▁Fin	-10.1436
lit	-10.1437
▁eliminat	-10.1437
▁settled	-10.1438
ject	-10.144
▁Play	-10.1445
▁arch	-10.1448
▁Press	-10.1448
▁beat	-10.1449
pot	-10.1452
cen	-10.1453
▁newly	-10.1453
▁inhabitants	-10.1454
▁1918	-10.1456
dor	-10.1457
▁injury	-10.1462
hl	-10.1467
▁Earl	-10.1477
▁counter	-10.1479
ky	-10.148
▁adapt	-10.1488
▁awards	-10.1488
▁restaurant	-10.1494
▁suburb	-10.1494
▁von	-10.1499
13	-10.1502
▁succeeded	-10.151
▁height	-10.1514
pu	-10.1519
▁phase	-10.1528
hand	-10.1529
▁Zo	-10.1531
▁mayor	-10.1531
nu	-10.1533
▁covers	-10.1536
▁suggested	-10.1542
▁Forest	-10.1542
▁sand	-10.1545
▁organ	-10.1549
▁Yo	-10.155
▁£	-10.1551
Between	-10.156
▁global	-10.156
▁History	-10.156
▁trains	-10.156
▁Islands	-10.156
▁relatively	-10.1561
oma	-10.1565
▁Rob	-10.1575
35	-10.1579
coming	-10.1581
ika	-10.1582
▁Angel	-10.1585
pir	-10.1593
▁throw	-10.1594
▁sense	-10.1595
▁discuss	-10.1596
▁Library	-10.1601
▁Network	-10.1601
▁narrow	-10.1601
▁Cur	-10.1601
get	-10.1603
▁northwest	-10.1604
▁Fall	-10.1606
▁secondary	-10.1615
BA	-10.1619
08	-10.162
▁conduct	-10.162
04	-10.1622
EC	-10.1623
lav	-10.1626
▁Girl	-10.1626
▁surviv	-10.1627
ges	-10.1628
▁Wilson	-10.163
▁corner	-10.1631
stan	-10.1633
▁trail	-10.1634
▁Para	-10.1635
▁Sar	-10.1638
▁tend	-10.164
▁buy	-10.1643
▁baseball	-10.1643
▁severe	-10.1644
▁Albert	-10.1647
▁trees	-10.165
aff	-10.165
▁Sur	-10.1651
hin	-10.166
mmer	-10.1666
▁contemporary	-10.1667
▁worldwide	-10.1669
▁investigat	-10.1674
▁failure	-10.1684
▁detect	-10.1685
▁Social	-10.1688
▁Fla	-10.1688
▁guard	-10.1691
▁politics	-10.1692
ration	-10.1694
▁designat	-10.1699
▁Sunday	-10.1702
45	-10.1703
TA	-10.1705
▁seed	-10.1707
▁conclud	-10.1708
▁sector	-10.171
–20	-10.1715
star	-10.1717
▁stock	-10.1718
▁chain	-10.1718
▁eat	-10.1726
▁extend	-10.173
▁catch	-10.1735
ava	-10.1735
▁fully	-10.1736
▁Golden	-10.1739
▁reaction	-10.1742
▁Operation	-10.1742
▁Head	-10.1744
bil	-10.1749
▁achieved	-10.1751
ister	-10.1753
▁roll	-10.1754
▁defense	-10.1758
ł	-10.1766
▁photo	-10.1768
▁advanced	-10.177
▁stopp	-10.1773
▁technical	-10.1775
▁holding	-10.1779
▁sun	-10.1786
▁rich	-10.1788
▁Media	-10.1789
▁session	-10.1792
life	-10.1792
▁Age	-10.1795
▁movies	-10.1798
-19	-10.1804
▁hair	-10.1808
▁let	-10.1808
▁Stadium	-10.1808
▁exhibit	-10.1813
▁priest	-10.1817
stra	-10.1819
▁improve	-10.1821
▁albums	-10.1825
tte	-10.1826
▁script	-10.183
▁Bat	-10.1832
▁1937	-10.1836
▁spell	-10.1838
bol	-10.1839
▁incident	-10.1842
heim	-10.1842
▁meant	-10.1845
lov	-10.1849
▁Ly	-10.1852
stein	-10.1853
▁detail	-10.1854
▁statement	-10.1856
▁Missouri	-10.1859
▁Mag	-10.1859
▁fruit	-10.1859
▁Roger	-10.1859
▁attach	-10.1868
▁composition	-10.1868
▁42	-10.1874
▁resulting	-10.1875
pin	-10.1877
hara	-10.1881
▁Class	-10.1881
▁critics	-10.1884
lot	-10.1884
▁Fire	-10.1889
▁rail	-10.1891
arch	-10.1893
▁Arthur	-10.1893
▁Dom	-10.1893
rop	-10.19
▁Beach	-10.1909
▁scoring	-10.191
▁75	-10.1912
▁speech	-10.1918
▁Kur	-10.1921
▁marked	-10.1922
vert	-10.1929
IA	-10.1932
▁Stephen	-10.1936
▁Arab	-10.1939
▁claims	-10.1942
olo	-10.1943
losing	-10.1945
rom	-10.1947
▁Cast	-10.1948
▁electronic	-10.195
▁progress	-10.1957
▁protection	-10.1958
▁your	-10.196
aga	-10.1961
▁quite	-10.1961
los	-10.1963
elle	-10.1964
▁tropical	-10.1969
▁architecture	-10.1971
▁bin	-10.1972
sia	-10.1976
,5	-10.1981
▁organisation	-10.1983
▁Pope	-10.1984
▁descend	-10.1986
▁flood	-10.1987
▁unknown	-10.199
03	-10.1991
▁plot	-10.1996
kins	-10.1998
▁Cle	-10.2
izing	-10.2003
▁happen	-10.2003
morph	-10.2008
▁tro	-10.2008
lat	-10.201
▁roof	-10.2013
point	-10.2016
▁visited	-10.2033
cel	-10.2035
FC	-10.2038
▁clubs	-10.204
▁fast	-10.2046
▁votes	-10.2048
▁analysis	-10.2055
▁auto	-10.2062
born	-10.2062
hel	-10.2063
ott	-10.2063
▁organizations	-10.2064
vid	-10.2065
▁rating	-10.2069
▁tall	-10.2069
▁Nations	-10.207
▁MP	-10.2072
▁Register	-10.2073
ean	-10.2076
▁sell	-10.2087
▁sixth	-10.2098
▁attend	-10.2102
▁chance	-10.2106
▁foundation	-10.2108
▁Journal	-10.2115
▁Channel	-10.2116
▁neighborhood	-10.2116
▁holds	-10.2117
▁39	-10.2124
atory	-10.2125
▁Dor	-10.2129
▁hour	-10.2129
▁economy	-10.2141
▁Region	-10.2146
▁manage	-10.2149
▁Taylor	-10.215
▁Winter	-10.2156
ging	-10.2158
▁hot	-10.2166
▁Iowa	-10.2168
mir	-10.217
▁Wall	-10.2172
▁premier	-10.2173
▁pal	-10.2175
▁animal	-10.2177
▁Vice	-10.2178
▁rear	-10.218
▁authority	-10.2181
▁dry	-10.2183
fre	-10.2187
▁Mir	-10.2188
▁dam	-10.2197
are	-10.2197
▁exception	-10.2207
yard	-10.2208
▁zone	-10.221
▁sequence	-10.2211
▁Police	-10.2213
▁wheel	-10.2217
▁attacks	-10.2218
▁versions	-10.2219
ify	-10.2219
▁pitch	-10.2219
▁dropped	-10.222
▁Ray	-10.2221
unk	-10.2221
▁Due	-10.2225
▁speak	-10.2225
▁Sil	-10.2225
▁chairman	-10.2226
ook	-10.2226
rr	-10.223
lay	-10.2231
▁1919	-10.2232
▁centuries	-10.2237
37	-10.2244
▁experiment	-10.2245
hol	-10.225
▁slow	-10.225
▁Kim	-10.2251
▁Gre	-10.2252
▁domestic	-10.2255
▁reduce	-10.2256
▁decide	-10.2257
▁models	-10.2257
mel	-10.2261
▁1917	-10.2267
23	-10.2268
▁Ministry	-10.2273
▁valley	-10.2273
▁1933	-10.2275
▁Wor	-10.2278
▁authorities	-10.2295
down	-10.2298
▁trip	-10.2304
▁encourage	-10.2308
itation	-10.2309
▁rare	-10.2309
▁Nazi	-10.2309
▁emerg	-10.2315
▁stadium	-10.2317
▁Regiment	-10.2317
▁Bri	-10.2318
▁metres	-10.2323
▁Matt	-10.2324
▁file	-10.2325
▁entrance	-10.2326
▁1935	-10.2328
▁Gor	-10.2329
▁conf	-10.233
▁sides	-10.2331
▁switch	-10.2334
▁Short	-10.2337
ida	-10.2337
▁fund	-10.2339
mus	-10.234
▁Point	-10.2344
▁memory	-10.2352
▁37	-10.2353
ille	-10.2354
▁relations	-10.236
une	-10.236
▁enemy	-10.2361
▁sal	-10.2366
col	-10.2367
▁birds	-10.2369
▁drink	-10.237
▁Business	-10.237
▁rough	-10.2372
hill	-10.2373
FL	-10.2376
▁1929	-10.2381
▁Doctor	-10.2382
tress	-10.2391
▁unable	-10.2392
AS	-10.2393
▁Plan	-10.2396
▁card	-10.2396
▁biggest	-10.2397
ost	-10.2398
▁expansion	-10.2405
▁Sri	-10.241
ept	-10.2412
▁Gla	-10.2423
▁daily	-10.2423
pproved	-10.2424
▁districts	-10.2424
▁relative	-10.2424
▁Simon	-10.2425
▁1934	-10.2434
▁te	-10.2434
▁Township	-10.2435
▁letters	-10.2437
rn	-10.2439
▁reign	-10.2442
▁frequently	-10.2447
▁titles	-10.2452
tus	-10.2456
▁Pur	-10.2476
▁regiment	-10.2478
▁demonstrat	-10.2479
ić	-10.2483
▁49	-10.2483
▁steam	-10.2489
▁cal	-10.249
▁arms	-10.2494
▁opposition	-10.2496
▁carry	-10.2496
▁Sim	-10.25
▁yard	-10.25
via	-10.2501
27	-10.2501
▁positions	-10.2502
ert	-10.2513
▁easily	-10.2513
▁singles	-10.2514
▁Khan	-10.2537
rate	-10.254
▁et	-10.2543
ae	-10.2548
▁survey	-10.2549
▁Junior	-10.2549
ographic	-10.2551
▁Max	-10.2554
▁don	-10.2554
bri	-10.2556
▁Ann	-10.2556
▁girls	-10.2557
▁Steve	-10.2559
▁Live	-10.2568
▁advance	-10.257
ddy	-10.2572
▁factor	-10.2574
burn	-10.2576
▁necessary	-10.2576
▁habitat	-10.2584
▁publication	-10.259
▁Austria	-10.2592
▁Kat	-10.2594
▁brown	-10.2595
▁figures	-10.2595
▁Cape	-10.2597
gor	-10.26
▁x	-10.2604
▁ways	-10.2611
▁Prior	-10.2611
▁materials	-10.2621
▁affect	-10.2621
▁maximum	-10.2623
known	-10.2624
▁push	-10.2624
hor	-10.2627
▁Eu	-10.263
▁Technology	-10.2631
▁Pas	-10.2641
▁combat	-10.2642
dan	-10.2644
ogen	-10.2648
ona	-10.2658
▁entitled	-10.2659
omy	-10.2659
▁mind	-10.2665
č	-10.2667
▁pieces	-10.2679
▁arrang	-10.268
win	-10.2682
▁Ji	-10.2684
▁NFL	-10.2691
cl	-10.2693
▁threaten	-10.2694
▁Bull	-10.2695
▁Melbourne	-10.2695
▁Six	-10.2695
▁Des	-10.2704
▁aid	-10.2705
jan	-10.2705
▁48	-10.2707
–18	-10.2714
▁compound	-10.2723
▁negative	-10.2723
22	-10.2726
▁Davis	-10.2726
ison	-10.2728
▁needs	-10.2732
▁prize	-10.2732
▁Cap	-10.2732
▁collaborat	-10.2736
▁fans	-10.2737
▁Constitution	-10.2741
▁What	-10.2744
▁plate	-10.2747
▁facility	-10.2748
▁existing	-10.2748
▁Sky	-10.2749
▁retirement	-10.2751
pul	-10.276
▁300	-10.276
ien	-10.2764
▁appeal	-10.2769
▁Minnesota	-10.2778
▁Now	-10.278
AR	-10.2781
5,000	-10.2782
▁occupied	-10.2783
24	-10.2786
▁accident	-10.2791
log	-10.2791
▁ending	-10.2796
▁behavior	-10.2796
▁god	-10.2805
▁1932	-10.2808
aging	-10.2809
▁ro	-10.2813
▁hockey	-10.2815
▁investigation	-10.2816
▁Guard	-10.2818
▁bio	-10.2824
nia	-10.2826
final	-10.2828
▁Ross	-10.2831
▁laws	-10.2836
36	-10.2838
▁steel	-10.2838
vor	-10.2838
▁message	-10.2843
▁learning	-10.2849
net	-10.2859
▁Lincoln	-10.2862
▁Egypt	-10.2866
▁EP	-10.2866
LA	-10.2867
▁principle	-10.2871
▁surname	-10.2871
▁respond	-10.2871
▁fear	-10.2871
ody	-10.2872
pan	-10.2874
its	-10.2875
▁Liberal	-10.288
rian	-10.2883
▁Common	-10.2888
▁Moscow	-10.289
ming	-10.2892
ique	-10.2895
▁application	-10.2897
▁Anti	-10.2898
▁advantage	-10.2899
▁die	-10.2902
▁Mas	-10.2906
awa	-10.291
▁Country	-10.2914
aki	-10.2915
▁el	-10.2917
mail	-10.292
▁mi	-10.2923
▁onto	-10.2923
▁citizens	-10.2924
▁1900	-10.2927
osa	-10.293
▁Ker	-10.293
▁journal	-10.294
▁plane	-10.2942
▁See	-10.2944
▁honour	-10.2946
▁Bol	-10.2947
▁Ford	-10.2949
▁Hor	-10.2949
gate	-10.2952
▁Manchester	-10.2955
▁choice	-10.2955
▁performing	-10.2958
▁sites	-10.2959
book	-10.2961
▁lyrics	-10.2962
▁tele	-10.2962
▁ideas	-10.2963
▁doing	-10.2966
▁41	-10.2966
vil	-10.2968
ico	-10.2971
▁Qua	-10.2972
ami	-10.298
ann	-10.2983
▁athlete	-10.2984
▁methods	-10.2985
▁varie	-10.2994
▁moment	-10.2994
list	-10.3
▁Christmas	-10.3003
▁township	-10.3008
▁Dal	-10.3008
▁Singapore	-10.3012
▁criminal	-10.3012
▁fashion	-10.3012
▁orchestra	-10.3012
▁Wisconsin	-10.3021
▁Cambridge	-10.3022
MA	-10.3022
▁web	-10.3028
▁weapons	-10.303
▁musician	-10.3032
ati	-10.3038
▁Mari	-10.3039
pat	-10.304
▁expert	-10.304
▁opposed	-10.3043
▁Native	-10.3043
▁Vietnam	-10.3049
view	-10.3052
▁sil	-10.3052
cin	-10.3055
▁lit	-10.3059
▁distinguish	-10.3059
▁divorc	-10.306
▁grand	-10.3062
26	-10.3063
▁photograph	-10.3063
mond	-10.3066
▁acts	-10.3066
▁glass	-10.3069
▁Jews	-10.3069
▁mix	-10.3072
▁fit	-10.3073
▁Sin	-10.3073
▁Ball	-10.3077
▁Jane	-10.3078
ima	-10.3078
▁1928	-10.3081
▁Anna	-10.3082
▁DVD	-10.3088
▁ethnic	-10.3088
▁engineering	-10.3091
▁Holy	-10.3091
bat	-10.3093
▁fan	-10.3094
▁hands	-10.3098
▁brothers	-10.3099
▁Dis	-10.3102
ites	-10.3105
▁fiction	-10.3106
night	-10.3107
▁officials	-10.3111
▁safe	-10.3117
wer	-10.3119
▁towns	-10.3119
▁1914	-10.312
ably	-10.3123
▁Web	-10.3124
▁Mos	-10.3126
▁arts	-10.3129
AF	-10.3129
▁Garden	-10.3131
ori	-10.3131
▁1926	-10.3138
▁existence	-10.314
▁govern	-10.3141
▁contributed	-10.3145
▁shift	-10.3146
▁frame	-10.3148
▁Tur	-10.3153
▁soil	-10.3164
▁Kansas	-10.3165
▁camera	-10.3165
century	-10.3167
▁moth	-10.3167
▁seats	-10.317
horn	-10.3171
38	-10.3173
▁vehicles	-10.3173
▁increasing	-10.3175
▁UN	-10.3181
▁drum	-10.3186
02	-10.3186
▁issu	-10.3187
▁opponent	-10.3194
▁receiving	-10.3194
▁Turkey	-10.3195
▁slave	-10.3199
zer	-10.3202
▁crash	-10.3204
▁resources	-10.3205
comp	-10.3212
▁bishop	-10.3213
▁lectur	-10.3213
▁pull	-10.3217
42	-10.3219
ridge	-10.3219
▁properties	-10.3223
▁documentary	-10.3226
▁Norway	-10.3226
▁institutions	-10.3227
lem	-10.323
▁slightly	-10.3232
wide	-10.3237
▁Dy	-10.3237
▁electric	-10.3243
▁vehicle	-10.3243
▁reasons	-10.3243
ides	-10.3246
▁bronze	-10.3252
▁bat	-10.3254
▁safety	-10.3255
▁Pal	-10.3255
▁Though	-10.326
▁Lewis	-10.3262
▁proper	-10.3264
▁1910	-10.3266
▁Est	-10.3271
ters	-10.3271
▁racing	-10.3272
▁Well	-10.3272
▁Project	-10.3273
▁Buck	-10.3273
▁painter	-10.3277
▁Brad	-10.3278
▁squad	-10.328
▁Player	-10.3285
▁regions	-10.3292
28	-10.3293
▁Cer	-10.3299
▁Anne	-10.33
▁Jen	-10.3301
▁hope	-10.3301
▁1923	-10.3303
OS	-10.3315
▁beyond	-10.332
▁entry	-10.332
vy	-10.3321
▁Harry	-10.3323
▁chair	-10.3336
▁Queensland	-10.334
▁threat	-10.3341
▁breed	-10.3342
▁brain	-10.3344
▁else	-10.3346
▁Bad	-10.3347
▁sav	-10.3361
▁1924	-10.3361
lk	-10.3366
▁Community	-10.3369
▁nuclear	-10.3369
▁correct	-10.3369
▁characteristic	-10.3372
▁implement	-10.3372
▁pan	-10.3373
▁eye	-10.3373
▁institution	-10.3374
▁400	-10.3375
▁guide	-10.3377
▁Medical	-10.3379
▁Mah	-10.3384
▁fleet	-10.3391
▁Ur	-10.3393
▁Then	-10.3396
▁Indiana	-10.3397
ree	-10.3397
▁Norwegian	-10.3398
▁Portuguese	-10.3398
pit	-10.34
▁causes	-10.3406
▁Original	-10.3408
▁residence	-10.3409
▁rain	-10.3412
75	-10.3418
▁Entertainment	-10.3418
▁Kentucky	-10.3418
▁hero	-10.3419
▁Medal	-10.342
▁1931	-10.342
39	-10.3422
▁sons	-10.3422
▁Lau	-10.3425
lf	-10.3427
▁Bureau	-10.3429
▁poll	-10.3432
95	-10.3436
▁dispute	-10.3439
▁1925	-10.3441
reg	-10.3448
▁weather	-10.3449
▁southwest	-10.3451
▁getting	-10.3454
grad	-10.3459
▁Tony	-10.3462
▁internal	-10.3462
▁How	-10.3463
ij	-10.347
▁labor	-10.347
▁add	-10.3471
▁Baron	-10.3472
▁Week	-10.3473
chu	-10.3473
▁shared	-10.3474
▁Ana	-10.3477
▁proceed	-10.3478
▁planet	-10.3479
▁lawyer	-10.3481
▁Every	-10.3481
▁Pass	-10.3482
▁contrast	-10.3487
▁Express	-10.3489
▁derived	-10.3495
ér	-10.3495
▁constant	-10.3497
▁Hart	-10.3504
32	-10.3508
–1	-10.3509
▁Pap	-10.351
▁refers	-10.3513
NA	-10.3516
ware	-10.3521
▁Brazilian	-10.3523
PS	-10.3526
▁combination	-10.3527
zz	-10.3529
▁finding	-10.3543
▁articles	-10.3546
▁Lev	-10.3548
▁clean	-10.3548
▁Ky	-10.3549
▁Mun	-10.3549
▁actions	-10.355
▁Bla	-10.3553
body	-10.3554
44	-10.3555
▁Walter	-10.3555
▁Only	-10.3562
▁Run	-10.3563
▁solid	-10.3567
29	-10.3575
▁coin	-10.3576
▁arm	-10.358
▁functions	-10.3585
▁category	-10.3587
sburg	-10.3588
iti	-10.3589
▁tail	-10.3591
▁Pet	-10.3592
iel	-10.3607
rio	-10.3614
power	-10.3615
▁islands	-10.3616
itor	-10.3617
▁Once	-10.3617
▁Athletic	-10.3617
▁Census	-10.3617
▁Command	-10.3619
▁1927	-10.362
▁1921	-10.3621
▁occurs	-10.363
▁notes	-10.3636
▁Hard	-10.3636
▁capture	-10.3636
▁Federation	-10.3638
▁mono	-10.3642
▁core	-10.3644
acy	-10.3647
cut	-10.3647
31	-10.3648
▁proved	-10.365
▁Real	-10.3652
▁Roll	-10.3658
blo	-10.366
▁Ak	-10.3662
most	-10.3668
99	-10.3671
▁classical	-10.3671
▁gets	-10.3674
▁52	-10.3675
▁Philippines	-10.3677
▁gather	-10.368
▁passenger	-10.3684
▁travell	-10.3687
▁funding	-10.3691
▁Shan	-10.3692
▁establishment	-10.3694
▁educated	-10.3698
▁independence	-10.3698
▁Family	-10.3698
▁phone	-10.37
▁Fred	-10.3706
▁talent	-10.3709
agh	-10.3713
▁Greece	-10.3719
▁ju	-10.3719
▁nor	-10.372
▁Sab	-10.3727
▁Swiss	-10.3729
▁greatest	-10.3729
nel	-10.3737
▁twelve	-10.3739
▁1922	-10.3741
verse	-10.375
▁piano	-10.3752
ode	-10.3756
▁minute	-10.3759
33	-10.3767
▁List	-10.3771
▁Rad	-10.3772
▁hop	-10.3772
▁Seven	-10.3774
▁cycle	-10.3776
▁passing	-10.3782
▁Kin	-10.3782
▁55	-10.3783
▁Fame	-10.3783
▁Bowl	-10.3791
type	-10.3793
▁incorporated	-10.3793
▁successfully	-10.3797
▁Maryland	-10.3799
▁qualified	-10.38
▁bottom	-10.38
▁skin	-10.3807
▁IV	-10.3807
▁segment	-10.381
RC	-10.3811
quit	-10.3811
weight	-10.3812
▁Sto	-10.3812
tical	-10.3816
rel	-10.3817
ago	-10.3829
▁participate	-10.383
▁literary	-10.3831
ré	-10.3833
▁bass	-10.3834
▁finds	-10.3837
▁cru	-10.384
▁Additional	-10.3841
▁load	-10.3849
▁Hockey	-10.3852
▁bodies	-10.3852
▁Jay	-10.3861
▁visual	-10.3862
nar	-10.3864
mph	-10.3867
▁shell	-10.3869
▁wish	-10.3871
cious	-10.3874
▁singing	-10.3875
position	-10.3876
▁tie	-10.3879
▁spoke	-10.3884
raw	-10.3888
▁standing	-10.3888
▁shoot	-10.3889
▁earliest	-10.3893
▁rap	-10.3905
▁Alex	-10.3907
TC	-10.3907
▁starts	-10.3913
▁opposite	-10.3914
▁1916	-10.3917
pet	-10.3917
▁Building	-10.3924
▁chose	-10.3927
▁educational	-10.3929
▁heard	-10.393
▁Revolution	-10.3932
▁determined	-10.3935
▁Communist	-10.3945
▁invasion	-10.3945
gie	-10.3947
▁entirely	-10.3952
▁Hindu	-10.3955
▁indicate	-10.3956
▁repair	-10.3956
ident	-10.396
▁recruit	-10.3966
▁heavily	-10.3966
▁Bun	-10.3969
gli	-10.3971
▁51	-10.3973
hop	-10.3976
▁villages	-10.3982
▁Knight	-10.3982
▁poly	-10.3984
▁observ	-10.3985
▁Sound	-10.3988
▁founding	-10.3989
▁hundred	-10.3994
▁jump	-10.3999
▁associate	-10.4004
▁walls	-10.4005
▁ultimately	-10.4007
yr	-10.4008
▁Barr	-10.4009
▁1915	-10.4011
▁finishing	-10.4013
▁Kra	-10.4014
mark	-10.4015
▁Qui	-10.4015
▁instance	-10.4019
▁investment	-10.4022
▁00	-10.4026
▁hu	-10.4029
bur	-10.4031
▁killing	-10.4038
▁ceremony	-10.4039
▁specifically	-10.4043
▁representing	-10.4047
▁Czech	-10.4049
▁theater	-10.405
boy	-10.4051
pre	-10.4052
43	-10.4052
▁selection	-10.4053
▁actual	-10.4055
pho	-10.4056
▁scope	-10.4056
▁Military	-10.406
▁Whit	-10.4063
▁AD	-10.4065
▁edit	-10.407
▁environmental	-10.407
47	-10.4072
▁Upon	-10.4073
▁Rod	-10.4074
▁mount	-10.408
▁contained	-10.4082
ender	-10.4087
86	-10.4088
▁belief	-10.4091
PA	-10.4092
▁Jam	-10.4095
▁Thus	-10.4098
▁attempts	-10.41
▁consecutive	-10.4102
▁Mass	-10.4103
▁wait	-10.4105
▁partnership	-10.4105
gle	-10.4106
Ma	-10.4113
▁strength	-10.4115
cio	-10.4123
▁Senator	-10.4126
▁invest	-10.413
▁Officer	-10.4131
▁ensure	-10.4136
▁Tennessee	-10.4144
▁herself	-10.4144
▁Mak	-10.4145
▁Gri	-10.4154
▁Village	-10.4154
▁controlled	-10.416
gram	-10.4163
▁Heart	-10.4169
▁Trust	-10.4173
▁sole	-10.4177
▁laid	-10.4184
▁trained	-10.4185
ace	-10.4187
AT	-10.4189
oper	-10.419
▁Bon	-10.419
▁reading	-10.4191
maker	-10.4194
▁argu	-10.4195
▁passes	-10.4199
▁programming	-10.42
▁Democrat	-10.4201
▁why	-10.4201
vol	-10.4201
▁1912	-10.4202
BS	-10.4203
aver	-10.4204
▁closely	-10.4206
▁Malaysia	-10.4206
AN	-10.4206
▁vice	-10.4207
▁chapter	-10.4208
▁layer	-10.421
▁device	-10.4213
▁Sen	-10.4213
▁Bab	-10.4216
▁calls	-10.4216
▁min	-10.4218
▁sample	-10.4219
rab	-10.4222
tting	-10.4232
▁Austrian	-10.4232
▁weak	-10.4236
▁Colorado	-10.424
▁nomination	-10.424
under	-10.4246
▁Farm	-10.4247
▁surround	-10.4249
34	-10.425
▁encounter	-10.4251
▁Jacob	-10.4251
▁stands	-10.4253
▁fields	-10.4254
▁guns	-10.4255
▁patients	-10.4262
▁possibly	-10.4262
▁Oregon	-10.4262
▁favor	-10.4266
,500	-10.4274
▁users	-10.4274
while	-10.4286
▁Steven	-10.4289
▁Nick	-10.4293
▁faced	-10.4293
▁objects	-10.4294
▁react	-10.4296
MS	-10.4298
▁registered	-10.4298
▁formal	-10.4301
late	-10.4303
▁attribut	-10.4305
▁withdraw	-10.4305
▁Les	-10.4306
▁preserv	-10.4308
lid	-10.4312
▁folk	-10.4316
▁planning	-10.4317
▁panel	-10.4317
▁Dra	-10.4319
▁determine	-10.432
▁alter	-10.4323
▁treat	-10.4324
pol	-10.4325
race	-10.4326
aj	-10.4326
ctic	-10.4328
▁reaching	-10.433
pel	-10.4334
gel	-10.4338
▁Temple	-10.4338
▁answer	-10.4338
▁Bern	-10.4339
▁humans	-10.4342
▁briefly	-10.4343
▁Arizona	-10.4348
▁cold	-10.4349
▁epi	-10.4349
tti	-10.4354
▁supporting	-10.4358
▁extension	-10.4359
▁recognition	-10.4359
▁jazz	-10.4359
met	-10.4359
85	-10.4361
▁150	-10.4361
▁Islamic	-10.4367
IT	-10.4367
ç	-10.4369
▁identity	-10.437
▁northeast	-10.4375
▁opinion	-10.4381
▁dress	-10.4381
▁Internet	-10.4381
▁Space	-10.4382
▁abandoned	-10.4384
▁Lang	-10.4386
rup	-10.4386
bach	-10.439
▁alleged	-10.4392
▁translation	-10.4397
▁debate	-10.4397
▁Executive	-10.4402
▁fighter	-10.4403
▁organis	-10.4404
96	-10.4407
rov	-10.4408
▁producing	-10.4413
▁43	-10.4413
▁decline	-10.4414
IC	-10.4419
key	-10.4425
▁carbon	-10.4427
adi	-10.4428
▁Here	-10.4432
▁Hamilton	-10.4435
▁accompani	-10.4435
▁Den	-10.4435
▁Sav	-10.4437
jured	-10.4439
▁Lan	-10.4442
▁Memorial	-10.4446
▁kick	-10.4451
▁decade	-10.4455
▁scheme	-10.4457
▁Mayor	-10.4459
▁Barn	-10.4462
▁skills	-10.4465
▁bond	-10.4465
script	-10.4465
assi	-10.4466
▁churches	-10.4467
lim	-10.4468
rac	-10.4471
enne	-10.4475
ø	-10.4476
▁lay	-10.4477
▁Mean	-10.4488
▁crown	-10.4491
▁coordinat	-10.4491
▁Labour	-10.4501
▁touchdown	-10.4501
▁huge	-10.4504
▁Israeli	-10.4506
▁criticiz	-10.4506
▁Lin	-10.4512
▁Television	-10.4512
ddle	-10.4515
▁Motor	-10.4522
▁importance	-10.4524
▁twin	-10.4527
ather	-10.4531
▁pioneer	-10.4534
▁mar	-10.4538
▁Burn	-10.4543
▁Lyn	-10.4553
▁Nord	-10.4553
▁schedule	-10.4555
tta	-10.4555
▁dominat	-10.4557
▁Islam	-10.4561
▁Gun	-10.4563
▁Jesus	-10.4568
▁locations	-10.4572
▁medicine	-10.4578
▁46	-10.4583
▁license	-10.4584
▁structures	-10.4585
▁Imperial	-10.4589
▁locomotive	-10.4589
▁volunteer	-10.4589
▁Hollywood	-10.4589
▁Pin	-10.4595
▁Economic	-10.46
▁genre	-10.4601
▁mention	-10.4602
▁Ir	-10.4603
▁desire	-10.4607
zon	-10.4608
▁involve	-10.461
▁Turkish	-10.4613
esh	-10.4614
▁sing	-10.4622
▁nickname	-10.4634
▁Base	-10.4643
bow	-10.4648
ural	-10.4651
▁Der	-10.4654
▁expression	-10.4656
▁Argentina	-10.4656
▁junior	-10.4656
▁delay	-10.4658
▁Morris	-10.4661
▁Euro	-10.4664
▁Conservative	-10.4667
▁rescue	-10.4668
▁Miller	-10.4672
▁hip	-10.4675
▁Kam	-10.4688
▁Brigade	-10.4689
▁wear	-10.4697
▁soft	-10.4698
▁introduction	-10.4701
▁sought	-10.4707
▁Palm	-10.4707
▁Hotel	-10.4708
lle	-10.4714
▁Through	-10.4715
▁Allen	-10.4716
▁Early	-10.472
▁warm	-10.4727
bia	-10.4727
tsu	-10.4741
▁funds	-10.4746
▁Oklahoma	-10.4746
▁installed	-10.4746
▁Cop	-10.4749
▁paintings	-10.475
election	-10.475
▁didn	-10.475
▁distinct	-10.4751
lap	-10.4755
zh	-10.4756
▁eleven	-10.4757
▁Douglas	-10.4757
▁Modern	-10.4757
vic	-10.4758
▁survived	-10.4764
▁Mississippi	-10.4768
▁costs	-10.4778
▁values	-10.4779
▁Chile	-10.478
▁Gil	-10.4783
▁southeast	-10.4784
▁Brook	-10.4785
▁brief	-10.4785
▁Nan	-10.4786
▁Magazine	-10.4791
▁budget	-10.4791
▁essential	-10.4802
▁climb	-10.4802
▁Howard	-10.4803
▁looking	-10.4807
▁Test	-10.4807
▁Hawk	-10.4811
▁runner	-10.4815
▁Front	-10.4815
▁fil	-10.4825
▁Adam	-10.4827
▁maintained	-10.4829
▁municipal	-10.483
▁specializ	-10.4835
▁47	-10.484
▁Square	-10.4848
▁Gulf	-10.4854
ibb	-10.4859
▁parallel	-10.4859
▁Fellow	-10.4859
rod	-10.4863
98	-10.4865
▁note	-10.4866
▁flows	-10.4871
ngel	-10.4872
▁grass	-10.4872
▁1913	-10.4874
▁drawing	-10.4877
▁poetry	-10.4878
▁string	-10.4879
▁activist	-10.4882
▁depend	-10.4883
▁harm	-10.4889
76	-10.489
▁regarded	-10.4893
▁broken	-10.4903
▁flying	-10.4904
▁interior	-10.4905
▁sale	-10.4906
▁Opera	-10.4907
▁Tamil	-10.4908
▁motion	-10.4909
▁Alabama	-10.4916
▁Lieutenant	-10.4916
▁Brian	-10.4918
▁applications	-10.4918
▁affected	-10.4918
▁thick	-10.4919
▁Il	-10.492
ello	-10.4921
▁Hawaii	-10.4928
▁offices	-10.4928
▁Wei	-10.4929
gla	-10.4933
▁McG	-10.4937
▁enroll	-10.494
lau	-10.4942
▁items	-10.4944
▁mini	-10.4944
▁proposal	-10.4944
▁mouth	-10.4945
▁factory	-10.4945
term	-10.495
▁Regional	-10.4954
chy	-10.4955
▁syn	-10.496
▁Saturday	-10.4962
rim	-10.4964
▁beach	-10.4964
▁Dick	-10.4964
▁dates	-10.4967
▁pack	-10.497
▁Studies	-10.4974
▁log	-10.498
▁Frederick	-10.4985
▁violence	-10.4985
▁statue	-10.4985
▁sculpture	-10.4985
▁marine	-10.4991
▁seventh	-10.4994
▁manufactur	-10.4995
▁Way	-10.4998
▁Ottoman	-10.5
onia	-10.5003
▁medium	-10.5008
▁raid	-10.5009
▁landscape	-10.5009
print	-10.5013
▁pin	-10.5017
▁wins	-10.5019
onne	-10.5021
▁Silver	-10.5023
▁Victor	-10.5028
▁Lind	-10.5028
nate	-10.504
▁quot	-10.5043
▁margin	-10.5044
etic	-10.5044
▁distributed	-10.5044
ech	-10.5044
▁agree	-10.505
▁classic	-10.5054
▁Belgian	-10.5055
▁crowd	-10.5055
▁Brand	-10.5056
▁Sciences	-10.5057
▁employees	-10.5057
▁Upper	-10.5058
mis	-10.5059
▁vocals	-10.5059
▁typical	-10.5061
▁grave	-10.5062
▁flu	-10.5065
▁Bengal	-10.5069
▁supplie	-10.507
▁Diego	-10.508
▁Grant	-10.5085
ivity	-10.5086
▁Record	-10.5091
arn	-10.5093
▁circle	-10.5101
▁Louisiana	-10.5101
▁Design	-10.5103
▁indicat	-10.5105
▁armed	-10.5106
▁Iron	-10.5112
▁monument	-10.5113
▁Who	-10.5113
RT	-10.5122
▁fresh	-10.5124
▁Services	-10.5128
▁pool	-10.513
▁rugby	-10.5136
▁perfect	-10.5136
▁Jon	-10.5137
▁element	-10.5138
▁Rio	-10.5139
▁collaboration	-10.5142
cies	-10.5146
▁Student	-10.5148
▁unusual	-10.5148
▁Ful	-10.5148
ibility	-10.5149
▁cent	-10.5149
▁wine	-10.515
▁offering	-10.5152
▁Lion	-10.5156
▁playoff	-10.5156
cock	-10.5159
▁opportunity	-10.516
season	-10.516
path	-10.517
▁erect	-10.5173
▁Disney	-10.5173
▁Beau	-10.5174
ST	-10.5178
▁cool	-10.5178
▁decades	-10.5181
▁perhaps	-10.5184
▁NHL	-10.5187
pass	-10.5188
▁user	-10.519
▁Clo	-10.5193
▁NCAA	-10.5195
uz	-10.5204
▁Quebec	-10.5207
▁fly	-10.5209
▁wounded	-10.5209
▁Monte	-10.5211
▁vary	-10.5213
▁fail	-10.5216
▁shore	-10.5216
▁Hand	-10.5217
▁philosophy	-10.5219
▁regularly	-10.5222
BC	-10.5224
▁Gall	-10.523
▁Infantry	-10.523
▁venue	-10.523
▁nothing	-10.5234
take	-10.5235
▁Pop	-10.5236
93	-10.5239
▁cm	-10.524
▁freedom	-10.5245
ander	-10.5247
rm	-10.5252
yne	-10.5256
▁correspond	-10.526
Co	-10.526
▁stores	-10.526
▁selling	-10.5262
▁Nam	-10.5262
DA	-10.5265
▁spirit	-10.5265
wich	-10.5267
▁mental	-10.5267
▁rose	-10.5273
master	-10.5277
▁railroad	-10.5278
▁Detroit	-10.5278
zu	-10.5279
▁prime	-10.528
▁musicians	-10.528
▁brick	-10.5282
▁operator	-10.5282
▁Eli	-10.5282
▁Rural	-10.5284
cra	-10.5284
▁coal	-10.5286
▁DC	-10.5287
▁separated	-10.5288
▁reality	-10.5289
▁Foreign	-10.529
▁civilian	-10.529
▁happened	-10.529
vision	-10.5301
▁1890	-10.5302
▁lap	-10.5302
rig	-10.5308
▁gate	-10.5311
tail	-10.5312
▁agricultural	-10.5314
▁driving	-10.5314
▁presidential	-10.5319
▁Ron	-10.532
▁standards	-10.532
abad	-10.5321
▁Rh	-10.5321
▁meters	-10.5325
▁Moon	-10.5325
▁stating	-10.5326
▁measure	-10.5328
▁bas	-10.5329
enberg	-10.5333
▁calling	-10.5336
gun	-10.5337
▁struggle	-10.5339
▁integr	-10.5341
ential	-10.5344
▁Michel	-10.535
▁Gordon	-10.5351
▁1911	-10.5353
▁guitarist	-10.5362
elli	-10.5369
▁Houston	-10.5373
▁check	-10.5374
▁extremely	-10.5394
▁Eric	-10.5395
▁Barb	-10.5397
▁Wy	-10.5398
▁personnel	-10.5399
▁relat	-10.5402
▁Kil	-10.5403
▁Bha	-10.5407
▁select	-10.5409
▁illegal	-10.5409
▁shut	-10.541
▁ste	-10.5411
vat	-10.5411
ators	-10.5413
▁arrive	-10.5413
▁notably	-10.5414
▁racial	-10.5422
▁fur	-10.5422
asa	-10.5426
▁Squadron	-10.5434
▁defence	-10.5434
▁Patrick	-10.5435
▁ago	-10.5435
oh	-10.5439
eve	-10.544
▁vol	-10.5441
▁Key	-10.5445
▁Children	-10.5446
▁fired	-10.5453
▁Management	-10.5458
▁bound	-10.5458
▁expos	-10.546
half	-10.547
▁observed	-10.5476
▁Affairs	-10.5482
–3	-10.5485
▁Let	-10.5492
▁sit	-10.5492
▁speaker	-10.5493
▁Connecticut	-10.5494
▁Miami	-10.5496
▁News	-10.5496
▁turns	-10.5498
▁Mol	-10.5498
▁poem	-10.5518
fall	-10.552
rang	-10.5525
▁argue	-10.5526
ES	-10.5526
▁Bir	-10.5526
▁Prix	-10.5527
▁exercise	-10.5531
▁Current	-10.5531
▁graphic	-10.5533
▁Single	-10.5537
▁circuit	-10.5543
▁Vienna	-10.5543
▁Mau	-10.5546
▁manufacturer	-10.5549
gger	-10.5555
cri	-10.5556
▁Cole	-10.5561
▁sets	-10.5565
eli	-10.5566
craft	-10.5567
holder	-10.5574
gio	-10.5575
▁demo	-10.5575
▁Taiwan	-10.558
▁repeated	-10.5581
lab	-10.5586
nik	-10.5587
▁Dean	-10.5587
▁Samuel	-10.5592
eva	-10.5592
cz	-10.5593
91	-10.5595
▁intention	-10.5596
state	-10.56
empt	-10.5601
▁Cemetery	-10.5604
▁adjacent	-10.5604
phe	-10.5608
▁remove	-10.5613
▁op	-10.5614
▁Zi	-10.5618
▁listen	-10.5621
▁Ty	-10.5633
▁Places	-10.5636
▁drawn	-10.564
▁bands	-10.5641
▁stayed	-10.5649
▁sin	-10.5653
▁provision	-10.5655
▁showing	-10.5657
nor	-10.5658
shaped	-10.566
level	-10.5665
▁universities	-10.5666
▁accused	-10.5666
▁eyes	-10.5667
▁Honor	-10.5668
▁Tiger	-10.5671
▁transform	-10.5673
cover	-10.5676
▁Bow	-10.5676
▁Belgium	-10.5678
▁equivalent	-10.5678
▁faith	-10.5678
▁Cli	-10.568
▁FA	-10.5682
AM	-10.5685
▁des	-10.5688
II	-10.5689
▁bone	-10.569
▁Denmark	-10.5691
▁definition	-10.5692
▁squadron	-10.5692
▁remember	-10.5694
una	-10.5694
▁thousands	-10.5695
▁hat	-10.5698
cop	-10.57
▁Stan	-10.5703
▁1908	-10.5706
▁gift	-10.5715
▁passengers	-10.5719
▁rivers	-10.572
▁App	-10.5721
▁raise	-10.5722
▁Len	-10.5724
borough	-10.5724
▁expedition	-10.5727
▁Cook	-10.5739
▁earth	-10.574
▁constituency	-10.574
▁Juan	-10.5742
▁tourist	-10.5745
▁boys	-10.5746
▁successor	-10.5747
▁54	-10.575
▁Orchestra	-10.5752
▁occupation	-10.5752
▁Dublin	-10.5752
▁agency	-10.5753
▁ABC	-10.5753
▁Romania	-10.5755
▁candidates	-10.5757
▁vo	-10.5759
▁Sara	-10.5762
▁lose	-10.5763
▁batt	-10.5765
▁franchise	-10.5765
▁witness	-10.5765
▁drop	-10.5767
bla	-10.5767
ense	-10.5769
▁Die	-10.5769
▁Lar	-10.577
▁tube	-10.5772
hard	-10.5774
▁Dream	-10.5778
▁regulation	-10.5778
▁writers	-10.5778
▁Five	-10.5784
▁Engineering	-10.5785
▁sort	-10.5785
▁transition	-10.5785
▁images	-10.5786
▁Security	-10.579
▁Jordan	-10.579
▁Dol	-10.5799
lio	-10.5801
▁patent	-10.5802
▁Ang	-10.5805
▁ill	-10.581
▁parliament	-10.5812
SC	-10.5813
tum	-10.5813
core	-10.5814
▁resistance	-10.5816
▁handle	-10.5816
▁Municipality	-10.5817
▁secure	-10.5826
▁cook	-10.583
▁1907	-10.5831
fort	-10.5833
▁lock	-10.5834
iva	-10.5841
▁bowl	-10.5844
▁grown	-10.5844
ulation	-10.5845
▁initiat	-10.5848
▁Back	-10.585
▁predict	-10.5851
uit	-10.5852
▁residential	-10.5853
cial	-10.5857
▁salt	-10.5859
▁Classic	-10.5859
DP	-10.5862
▁Kir	-10.5865
▁Senior	-10.5865
ote	-10.5866
▁magic	-10.5869
▁Thi	-10.5869
▁designer	-10.5869
▁plea	-10.5877
▁dynasty	-10.5883
▁Montreal	-10.589
▁dismiss	-10.589
▁arrangement	-10.5892
▁powers	-10.5898
▁fee	-10.5899
cap	-10.5901
RI	-10.5902
▁Anderson	-10.5903
ature	-10.5906
▁arrest	-10.5909
▁march	-10.5911
▁worth	-10.5911
▁pet	-10.5915
ela	-10.5916
asse	-10.5918
▁span	-10.5919
▁Indonesia	-10.5921
▁Bush	-10.5923
▁devices	-10.5923
akh	-10.5924
▁ver	-10.5925
DS	-10.5926
sphere	-10.5926
▁Helen	-10.5928
▁immigrant	-10.5928
▁Eagle	-10.5928
88	-10.5929
▁context	-10.5929
▁truck	-10.5932
stand	-10.5933
▁gang	-10.594
▁fill	-10.594
▁roads	-10.5944
▁Chairman	-10.5944
▁shooting	-10.5946
▁Zu	-10.5948
▁journey	-10.5954
▁Tokyo	-10.5954
▁Album	-10.5954
▁Swa	-10.5954
▁FM	-10.5955
▁Coll	-10.5959
fish	-10.5959
▁ahead	-10.596
▁Reserve	-10.5967
▁CEO	-10.5969
▁Review	-10.5971
▁snow	-10.5979
▁delivered	-10.5981
▁Has	-10.5985
chin	-10.5988
▁forests	-10.5989
arrow	-10.5989
asi	-10.5991
tier	-10.5992
▁courses	-10.5995
▁SR	-10.5996
IN	-10.5996
▁Representatives	-10.5997
▁Egyptian	-10.5999
▁Production	-10.6
flu	-10.6002
▁techniques	-10.6003
eau	-10.6005
yu	-10.6008
▁Dark	-10.6008
gri	-10.6013
▁spoken	-10.6017
▁Carr	-10.6018
▁Palace	-10.602
bridge	-10.6022
▁Just	-10.6031
▁tea	-10.6032
▁ends	-10.6035
▁Harris	-10.604
▁migrat	-10.6044
league	-10.6051
▁Alan	-10.6052
illo	-10.6052
▁notice	-10.6055
▁intelligence	-10.6056
▁prince	-10.6056
▁teachers	-10.6058
▁Wolf	-10.606
wl	-10.606
▁Dave	-10.6061
▁bed	-10.6063
▁touch	-10.6071
▁caught	-10.6071
▁Local	-10.6073
▁Raj	-10.6078
▁arrival	-10.6079
▁Anthony	-10.6082
▁tunnel	-10.6082
▁neuro	-10.6082
▁pain	-10.6085
▁trace	-10.6086
▁Unit	-10.6088
▁hole	-10.6091
▁Whi	-10.6091
pla	-10.6095
▁alcohol	-10.6095
▁inherit	-10.6095
▁Read	-10.6098
▁Danish	-10.6101
▁dating	-10.6105
ER	-10.6112
Star	-10.6115
▁retail	-10.6116
profit	-10.6116
omi	-10.6118
▁Lou	-10.6119
▁reli	-10.6119
▁poverty	-10.612
▁stood	-10.6121
cell	-10.6124
▁Fra	-10.613
▁Nar	-10.6132
▁NY	-10.6136
▁manner	-10.6138
▁Rick	-10.614
▁Naval	-10.6142
▁thing	-10.6143
▁canton	-10.6144
▁elevation	-10.6146
▁Harvard	-10.6146
▁Margaret	-10.6146
▁Third	-10.6148
▁argument	-10.6151
▁improvement	-10.6154
▁Neu	-10.6162
SI	-10.6168
▁Commonwealth	-10.6172
▁relocat	-10.6173
▁Chang	-10.6173
▁ruler	-10.6174
▁Metro	-10.6175
▁instruments	-10.6176
AP	-10.6178
style	-10.6179
▁Independent	-10.6179
▁Your	-10.618
lish	-10.6183
▁continuous	-10.6189
▁fu	-10.619
load	-10.6193
▁53	-10.6198
▁duty	-10.6198
▁cousin	-10.6198
▁renew	-10.6198
▁Chart	-10.62
▁Hungarian	-10.6211
▁Ukrainian	-10.6211
▁chamber	-10.6211
▁apply	-10.6216
liga	-10.6226
▁knock	-10.6237
▁Puerto	-10.6238
▁committed	-10.6238
▁scholar	-10.6241
▁owners	-10.6244
▁criticism	-10.6244
uv	-10.6247
▁parent	-10.6253
▁Finland	-10.6256
▁rejected	-10.6257
▁Baltimore	-10.6264
▁schedul	-10.6265
▁Bru	-10.6269
▁Tele	-10.6269
▁choose	-10.627
gam	-10.6281
▁Kent	-10.6286
▁Karl	-10.6289
▁rooms	-10.629
▁net	-10.6291
▁tennis	-10.6291
▁ride	-10.6293
▁Note	-10.6295
▁illustrat	-10.6297
but	-10.6297
▁flower	-10.6298
▁Cher	-10.6298
▁subjects	-10.6299
▁Antonio	-10.6308
▁ocean	-10.6316
▁lift	-10.6318
▁prove	-10.632
▁views	-10.632
▁1905	-10.632
▁Ob	-10.6329
▁Battalion	-10.6329
▁membership	-10.6336
▁flowers	-10.6337
▁normally	-10.6338
▁convention	-10.6339
77	-10.6341
▁Corn	-10.6344
last	-10.6348
▁Mountains	-10.635
▁filled	-10.6351
lane	-10.6353
▁rat	-10.6353
▁replacement	-10.6353
▁factors	-10.6353
capable	-10.6355
▁Communication	-10.6356
▁Metropolitan	-10.6356
▁Marie	-10.6362
cade	-10.6363
▁possess	-10.6365
▁measures	-10.6366
▁Bangladesh	-10.6369
▁stretch	-10.6369
face	-10.6372
anna	-10.6372
▁details	-10.6373
ulate	-10.6374
odi	-10.6375
▁charges	-10.6381
▁Convention	-10.6382
▁1909	-10.6386
▁Atlanta	-10.6396
▁sleep	-10.6396
▁donat	-10.6398
cum	-10.6404
▁purposes	-10.6404
kha	-10.6409
▁stress	-10.6415
lop	-10.6418
72	-10.6419
▁depth	-10.6423
▁adopt	-10.6424
▁prisoners	-10.6427
▁Morgan	-10.6427
train	-10.6428
▁Crown	-10.6428
far	-10.6434
▁gradual	-10.6436
▁collapse	-10.6436
▁fixed	-10.6436
▁Shah	-10.6438
▁Call	-10.6442
▁Kid	-10.6442
▁Lanka	-10.6444
▁faculty	-10.6449
▁merchant	-10.6449
▁Moore	-10.6456
lain	-10.6457
▁survive	-10.6459
wise	-10.6463
▁Hills	-10.6469
▁downtown	-10.6469
▁evening	-10.647
▁Shu	-10.647
▁crossing	-10.6476
▁1906	-10.648
84	-10.648
▁trie	-10.648
▁secretary	-10.6481
tech	-10.6481
▁Berg	-10.6481
rank	-10.6484
CI	-10.6485
▁covering	-10.6489
LC	-10.6489
▁satellite	-10.6489
▁pupil	-10.6489
▁Auto	-10.6495
née	-10.6501
▁diagnos	-10.6503
▁Chamber	-10.6503
▁Bus	-10.6504
▁concentration	-10.6504
imp	-10.6505
after	-10.6508
▁Dance	-10.6511
▁crop	-10.6511
▁Colombia	-10.6516
▁Lower	-10.6521
▁mobile	-10.6525
▁Bible	-10.6529
▁Picture	-10.653
▁contributions	-10.6531
▁Peace	-10.6531
tell	-10.6536
rage	-10.6537
▁DNA	-10.6538
▁contribut	-10.6538
▁disorder	-10.6543
▁Fund	-10.6543
▁kingdom	-10.6544
▁Iraq	-10.6546
▁Norman	-10.6547
▁Tower	-10.6547
▁Kelly	-10.6551
▁wire	-10.6551
▁supposed	-10.6556
▁Lawrence	-10.6556
▁Gallery	-10.6557
▁fictional	-10.6558
▁export	-10.6564
65	-10.6566
▁legend	-10.6566
ben	-10.6567
▁provincial	-10.657
▁domain	-10.657
▁advis	-10.6576
Pa	-10.658
▁substantial	-10.6583
46	-10.6584
▁66	-10.659
▁window	-10.6591
▁Wind	-10.6592
▁Administration	-10.6597
nut	-10.6597
▁variation	-10.6597
▁Unlike	-10.6599
▁Villa	-10.6599
▁apartment	-10.6601
ference	-10.6601
▁Bear	-10.6603
▁Hunt	-10.6603
▁Artist	-10.6606
▁Fan	-10.6609
▁Matthew	-10.6611
▁suspect	-10.6611
▁Windows	-10.6611
SP	-10.6615
▁charged	-10.662
▁responsibilit	-10.6621
▁whi	-10.6623
▁Deputy	-10.6624
▁soccer	-10.6624
▁variant	-10.6624
▁client	-10.6626
▁carrying	-10.6629
SE	-10.6631
gna	-10.6638
▁Cleveland	-10.6638
▁relegat	-10.6639
▁monk	-10.6641
▁profit	-10.6642
66	-10.6644
▁defensive	-10.6651
▁unsuccessful	-10.6651
▁insect	-10.6652
ova	-10.6655
78	-10.666
▁bird	-10.6661
83	-10.6663
▁convince	-10.6665
▁appointment	-10.6667
▁compris	-10.6674
▁Aero	-10.6674
zan	-10.6675
▁cable	-10.6678
▁Portugal	-10.6679
▁Seattle	-10.6679
▁mountains	-10.6679
aire	-10.6679
▁sat	-10.668
▁assault	-10.668
▁degrees	-10.6686
▁rebel	-10.6687
▁Wo	-10.6689
▁Youth	-10.669
▁engage	-10.6692
▁disappear	-10.6692
▁Hungary	-10.6692
▁Airways	-10.6693
▁Welsh	-10.6695
▁publisher	-10.6705
In	-10.6706
▁Ukraine	-10.6706
▁storage	-10.6706
▁vocal	-10.6707
▁1,000	-10.6712
71	-10.6712
ingham	-10.6714
▁Mai	-10.6716
rill	-10.6716
IP	-10.6717
▁thirty	-10.672
▁policies	-10.672
▁Race	-10.6723
▁continent	-10.6726
▁assumed	-10.6727
▁tributar	-10.6734
▁Johann	-10.6734
▁1904	-10.6737
▁1870	-10.6746
48	-10.6747
▁admitted	-10.6747
▁1901	-10.6752
▁landing	-10.6756
▁headed	-10.6757
▁Ryan	-10.6758
▁Hans	-10.6759
▁participant	-10.6761
▁Broadway	-10.6763
▁passage	-10.6765
▁instrument	-10.6765
▁elder	-10.6766
▁discussion	-10.6769
rri	-10.6771
▁Commander	-10.6774
Ch	-10.6775
▁duties	-10.6777
▁Non	-10.6788
▁Kennedy	-10.6789
▁anniversary	-10.6789
▁Judge	-10.6789
▁instruction	-10.6799
▁wooden	-10.6811
▁automatic	-10.6816
cla	-10.6817
roy	-10.6822
▁mining	-10.6828
▁deposit	-10.6829
▁Cooper	-10.6832
▁treated	-10.6832
▁Tech	-10.6835
lag	-10.6843
▁reputation	-10.6844
▁liquid	-10.6844
▁anything	-10.6845
▁56	-10.6846
tral	-10.6853
▁understand	-10.6854
▁portrait	-10.6858
41	-10.6864
▁Wing	-10.6874
▁AC	-10.6875
▁orbit	-10.6877
▁miss	-10.6879
dio	-10.6882
▁teach	-10.6889
-2	-10.6895
▁understanding	-10.6896
riv	-10.6898
▁revenue	-10.69
▁Alfred	-10.69
▁Baseball	-10.69
▁ranking	-10.6901
▁Cou	-10.6912
▁manuscript	-10.6914
▁identify	-10.6914
▁spiritual	-10.6915
▁hang	-10.6918
▁AM	-10.692
ür	-10.6925
▁Pittsburgh	-10.6928
▁recognis	-10.6928
▁technique	-10.693
▁Forces	-10.693
▁1880	-10.693
▁classified	-10.6931
▁1902	-10.6931
▁Lim	-10.6932
▁critic	-10.6933
▁Ever	-10.6933
▁Roy	-10.6939
▁Maha	-10.6941
▁monitor	-10.6942
▁battalion	-10.6942
▁rush	-10.6947
▁falls	-10.6947
▁adaptation	-10.6953
▁mechanism	-10.6956
▁Oak	-10.6957
▁documents	-10.6959
▁stem	-10.6961
hir	-10.6962
▁Lane	-10.6963
▁Bou	-10.6964
▁Nigeria	-10.6971
▁Franklin	-10.6976
▁plus	-10.6976
▁Colonel	-10.6984
▁Pad	-10.6987
▁Rights	-10.6987
pod	-10.6989
▁compilation	-10.699
eur	-10.6995
▁beautiful	-10.6998
▁dream	-10.6998
uf	-10.6999
had	-10.6999
▁underground	-10.7003
79	-10.7006
▁counties	-10.7006
▁publishing	-10.7006
NC	-10.701
▁particle	-10.7013
▁childhood	-10.7014
▁58	-10.7015
urge	-10.7015
▁moral	-10.7018
▁peaked	-10.7019
▁Know	-10.7021
▁Emil	-10.7021
ule	-10.7022
▁afterward	-10.7026
▁prosecut	-10.7026
▁Heritage	-10.7026
▁Alaska	-10.7027
aba	-10.7028
OC	-10.7033
▁noble	-10.7033
▁charter	-10.7039
▁Jun	-10.704
▁procedure	-10.7041
▁uniform	-10.7041
▁sections	-10.7048
phone	-10.7049
ów	-10.7052
▁emperor	-10.7055
▁suicide	-10.7055
▁Rugby	-10.7055
▁Nelson	-10.7055
▁Cru	-10.7055
▁finance	-10.7057
ution	-10.7059
82	-10.7063
▁Rich	-10.7065
hra	-10.7067
hem	-10.7068
▁carrier	-10.7071
▁Mrs	-10.7071
▁airline	-10.7076
▁sustain	-10.7077
ET	-10.7078
▁Petr	-10.7083
▁fossil	-10.7083
▁62	-10.7087
▁favour	-10.709
▁Studios	-10.7099
▁update	-10.7105
▁Liverpool	-10.7112
▁balance	-10.7112
MI	-10.7112
▁beetle	-10.7113
▁Persian	-10.7113
▁debt	-10.7114
ceased	-10.7115
▁1903	-10.7116
▁strongly	-10.7126
▁SS	-10.7128
▁Tam	-10.7131
▁upgrad	-10.7137
▁achieve	-10.7138
▁Orthodox	-10.714
mount	-10.7142
▁equation	-10.7146
▁prepared	-10.7147
▁Row	-10.7149
▁formally	-10.7154
▁representation	-10.7158
bie	-10.716
▁marry	-10.7161
▁testing	-10.7163
trop	-10.7166
▁Milan	-10.7168
▁fishing	-10.7169
▁Ltd	-10.7171
CS	-10.7174
mid	-10.7178
ush	-10.718
span	-10.7181
▁Railroad	-10.7183
▁amateur	-10.7184
aria	-10.7185
▁Wel	-10.7187
▁Report	-10.7187
▁Labor	-10.7191
hold	-10.7192
▁Apple	-10.72
▁celebrated	-10.72
▁Tel	-10.72
▁classification	-10.72
▁naval	-10.72
oxide	-10.7203
hat	-10.7209
▁resolution	-10.7212
▁soundtrack	-10.7212
▁description	-10.7212
▁ownership	-10.7215
ract	-10.7216
rik	-10.7221
▁coastal	-10.7222
rell	-10.7226
▁Tournament	-10.7227
▁Vin	-10.7227
▁cup	-10.7229
▁Wol	-10.7233
▁differ	-10.7234
▁windows	-10.7237
▁artistic	-10.7239
▁consumer	-10.724
▁Cardinal	-10.7241
ME	-10.7246
▁supervis	-10.7249
▁Agency	-10.7256
▁PC	-10.7262
▁pot	-10.7264
▁neighbor	-10.727
▁Edinburgh	-10.727
▁desert	-10.7272
▁achievement	-10.7274
▁massive	-10.7279
▁involving	-10.7285
▁Defense	-10.7285
▁changing	-10.7285
▁ruin	-10.7285
range	-10.7285
▁Standard	-10.7286
▁plain	-10.7289
▁Nat	-10.7289
81	-10.729
▁Mission	-10.7292
The	-10.7297
▁CBS	-10.7297
▁Jeff	-10.7297
▁regime	-10.7298
▁artillery	-10.7299
▁virtual	-10.7299
▁Utah	-10.7299
▁José	-10.73
▁seiz	-10.7306
▁Glen	-10.731
▁submarine	-10.7314
▁Low	-10.7315
▁vision	-10.7316
▁unlike	-10.7324
determin	-10.7324
▁Cathedral	-10.7328
▁Rev	-10.7331
▁Ry	-10.7335
56	-10.7336
▁somewhat	-10.7343
▁confront	-10.7344
▁Gran	-10.7346
▁soul	-10.735
▁justice	-10.7352
media	-10.7354
▁genetic	-10.7355
74	-10.7364
▁everything	-10.7373
▁Arabic	-10.7374
▁imprison	-10.7387
▁bay	-10.7387
▁Imp	-10.7388
▁visitors	-10.7391
▁trust	-10.7393
▁NBC	-10.7393
64	-10.7408
▁premiere	-10.7408
▁57	-10.741
▁Christopher	-10.7416
▁legislation	-10.7416
▁trouble	-10.7416
▁Kon	-10.7422
▁depart	-10.7427
▁Bour	-10.7428
▁deliver	-10.7428
▁components	-10.7429
▁Soon	-10.743
▁abuse	-10.7433
▁gender	-10.7435
spread	-10.744
▁convict	-10.7441
band	-10.7452
▁Dec	-10.7454
▁observation	-10.7455
▁processes	-10.7456
post	-10.7458
▁offensive	-10.746
HS	-10.746
ancy	-10.7461
▁municipalities	-10.7462
▁Sid	-10.7464
▁recall	-10.7464
▁bright	-10.7465
▁Gill	-10.7465
▁1898	-10.7468
▁hunt	-10.7474
▁apart	-10.7474
▁Shin	-10.7476
▁gay	-10.7476
▁scholars	-10.7484
▁Az	-10.7486
▁hydro	-10.7486
▁depending	-10.7487
▁horses	-10.749
▁external	-10.749
▁1860	-10.7492
▁Friday	-10.7493
MC	-10.7495
▁Greg	-10.7499
▁der	-10.75
▁Gate	-10.7501
▁secur	-10.7505
direct	-10.7508
▁Shaw	-10.751
▁align	-10.7511
▁95	-10.7513
▁enhanc	-10.7521
▁champions	-10.7521
▁Steel	-10.7522
▁Sarah	-10.7522
▁eggs	-10.7524
▁Market	-10.7524
▁thousand	-10.7529
▁restrict	-10.7529
▁coverage	-10.753
▁angle	-10.7533
▁settl	-10.7533
▁Off	-10.7534
▁memorial	-10.7535
▁Finnish	-10.7535
▁imagin	-10.7535
zen	-10.7535
▁Gene	-10.7538
▁meta	-10.7538
▁Leon	-10.7539
55	-10.7539
▁widow	-10.7549
▁ticket	-10.7549
▁missing	-10.7552
tine	-10.7556
▁Reform	-10.7561
▁Carter	-10.7564
▁questions	-10.7568
▁Kara	-10.7568
▁NBA	-10.7574
▁radi	-10.7578
▁extinct	-10.758
kel	-10.758
SU	-10.7585
▁objective	-10.7587
▁retir	-10.759
▁controversial	-10.7594
▁heritage	-10.7594
▁Austin	-10.7594
▁define	-10.7599
either	-10.7605
SS	-10.7607
▁cave	-10.7609
▁Arkansas	-10.7609
▁colonial	-10.7609
▁temporary	-10.7609
▁Kevin	-10.7612
▁victims	-10.7615
versus	-10.7617
▁assembly	-10.762
▁audio	-10.762
ović	-10.7622
regulat	-10.7627
box	-10.7631
ED	-10.7631
▁Adams	-10.7632
▁consistent	-10.7633
ifying	-10.7634
▁Rub	-10.7638
▁mathematics	-10.7639
▁medieval	-10.7639
▁useful	-10.7645
▁Jose	-10.7645
▁Our	-10.7648
▁easy	-10.7655
test	-10.7657
▁longest	-10.7659
▁Global	-10.767
▁Dallas	-10.767
▁Donald	-10.767
▁Rhode	-10.767
▁losses	-10.767
▁Robinson	-10.7672
▁assistance	-10.7675
▁Walker	-10.7676
▁Rain	-10.7678
▁1000	-10.7679
▁highlight	-10.7679
mour	-10.768
feld	-10.7682
▁Dev	-10.7685
▁constitution	-10.7694
▁Azerbaijan	-10.77
▁influential	-10.77
▁PA	-10.7702
▁Cel	-10.7702
llen	-10.7705
▁reproduc	-10.771
▁Hil	-10.7711
anga	-10.7712
▁Ant	-10.7718
▁cards	-10.7719
▁Daily	-10.7723
▁Afghanistan	-10.773
▁colony	-10.773
▁executed	-10.7733
▁initiative	-10.7734
▁hundreds	-10.7735
commun	-10.7737
▁wrong	-10.7745
▁Singh	-10.7754
boat	-10.7754
▁pure	-10.7758
rose	-10.776
▁output	-10.7761
▁XI	-10.7763
▁Adv	-10.7775
▁patron	-10.7776
stock	-10.7778
▁Sai	-10.7779
rance	-10.7786
phon	-10.7786
▁eighth	-10.7786
▁Fal	-10.7789
gui	-10.779
▁entertainment	-10.7793
▁fat	-10.7795
▁publications	-10.7799
pher	-10.7805
▁crisis	-10.7807
▁Nepal	-10.7807
▁Magn	-10.7818
issa	-10.7819
▁Father	-10.782
▁surrender	-10.7822
▁knew	-10.7822
▁retreat	-10.7822
▁Gam	-10.7832
67	-10.7834
▁junction	-10.7837
▁Care	-10.7838
▁Billy	-10.7846
▁gone	-10.785
quir	-10.7851
▁tip	-10.7852
▁adventure	-10.7852
▁Bruce	-10.7855
▁pursue	-10.786
▁Sport	-10.7862
related	-10.7862
▁Chu	-10.7864
▁Princess	-10.7865
▁Guy	-10.7866
▁jurisdiction	-10.7868
▁worship	-10.7868
▁error	-10.7868
▁Brooklyn	-10.7868
▁struck	-10.7869
▁occasionally	-10.7872
▁scar	-10.7872
▁Cass	-10.788
▁infantry	-10.7886
▁otherwise	-10.7893
▁bell	-10.7898
▁commemorat	-10.7899
▁fifteen	-10.7899
▁72	-10.7899
▁terminal	-10.7899
▁palace	-10.7899
▁Spi	-10.79
▁aspects	-10.7902
▁Stanley	-10.7902
person	-10.7906
▁poems	-10.7908
western	-10.7909
▁Que	-10.7909
▁athletic	-10.7914
▁institute	-10.7918
▁interpret	-10.7923
▁earning	-10.7925
▁branche	-10.7925
▁concrete	-10.7929
▁vessels	-10.793
▁evaluat	-10.793
▁Electric	-10.793
▁boundary	-10.7933
▁requirements	-10.7939
▁affiliate	-10.7941
▁frequency	-10.7945
▁elevat	-10.7946
dig	-10.7946
▁Jimmy	-10.7946
▁none	-10.7948
73	-10.795
quest	-10.7954
▁manufacturing	-10.7955
▁Beck	-10.7958
▁mag	-10.796
▁Place	-10.796
▁rent	-10.796
▁Capital	-10.7961
▁Brothers	-10.7965
logy	-10.797
▁coat	-10.7972
▁Canal	-10.7973
▁chapel	-10.7976
▁variable	-10.7976
Ro	-10.7978
▁tools	-10.7985
aceae	-10.7992
▁proportion	-10.7992
▁celebration	-10.7998
▁1895	-10.8001
▁import	-10.8004
▁Within	-10.8005
▁increasingly	-10.8007
▁annually	-10.8007
▁patrol	-10.8007
▁intersection	-10.8012
▁85	-10.8013
▁Russell	-10.8023
▁Leader	-10.8023
49	-10.8023
▁youngest	-10.8023
▁pipe	-10.8024
▁rebuil	-10.8026
▁involvement	-10.8028
▁invad	-10.8034
▁strategy	-10.8038
▁surprise	-10.8038
▁drain	-10.8039
▁descent	-10.804
▁estimate	-10.8046
▁prompt	-10.8047
▁false	-10.8055
▁Chand	-10.8056
▁sugar	-10.8057
▁Graham	-10.806
▁Drive	-10.8064
▁Admiral	-10.807
▁appropriate	-10.807
▁dialect	-10.807
▁missile	-10.8071
rou	-10.8078
▁traveled	-10.808
▁Merc	-10.808
WA	-10.8082
▁concentrat	-10.8084
▁Voivodeship	-10.8086
▁veteran	-10.8086
▁animated	-10.8086
▁illness	-10.8088
▁Tai	-10.8088
▁clan	-10.8094
▁revis	-10.8096
▁Thompson	-10.8101
–6	-10.8102
▁wedding	-10.8103
69	-10.8104
▁Stock	-10.8106
▁hearing	-10.8107
quin	-10.8107
▁reside	-10.8108
▁ratio	-10.8112
▁sight	-10.8114
▁Kha	-10.8114
▁solve	-10.8118
▁fer	-10.8118
▁Hell	-10.8122
GA	-10.8125
▁Ward	-10.8128
▁craft	-10.8129
▁Cow	-10.8132
▁Penn	-10.8132
▁sequel	-10.8133
▁sufficient	-10.8133
▁copy	-10.8133
aku	-10.8134
▁greatly	-10.8138
51	-10.8138
▁FIFA	-10.8149
RS	-10.8155
▁ideal	-10.8158
card	-10.8161
▁Hispanic	-10.8165
▁enable	-10.8165
▁qualifying	-10.8166
▁DJ	-10.8167
▁Bernard	-10.8168
▁Leg	-10.8169
▁Johnny	-10.8174
▁Romanian	-10.8177
▁payment	-10.8179
went	-10.8186
▁Death	-10.8188
▁emergency	-10.8188
▁ear	-10.8189
▁Mann	-10.819
FA	-10.8194
titut	-10.8195
▁Stewart	-10.8196
▁diameter	-10.8196
▁prop	-10.8197
▁Dragon	-10.8197
bound	-10.8203
fire	-10.8203
▁uncle	-10.8203
▁Round	-10.8206
▁surgery	-10.8212
▁conservative	-10.8213
▁denied	-10.8214
▁weapon	-10.8215
▁1896	-10.8221
▁59	-10.8227
▁agriculture	-10.8228
▁modified	-10.8228
▁deputy	-10.8228
▁transmission	-10.8229
▁120	-10.8234
▁Story	-10.8236
▁Trade	-10.8238
tang	-10.824
▁Pala	-10.8242
Ar	-10.8243
rav	-10.8247
▁1899	-10.8254
HL	-10.8255
▁Pont	-10.8259
▁giant	-10.8261
–4	-10.8262
▁Rus	-10.8263
▁instrumental	-10.8267
▁mat	-10.8267
▁skill	-10.827
▁seal	-10.8273
▁baby	-10.8277
CE	-10.8277
▁dangerous	-10.8278
▁dancer	-10.8279
▁Anton	-10.8283
▁completion	-10.8284
▁clock	-10.8284
▁scientists	-10.8285
▁Yorkshire	-10.8288
▁stable	-10.8292
▁Medicine	-10.8292
▁cabinet	-10.8292
▁liberal	-10.8292
▁attorney	-10.8292
▁Murray	-10.8294
▁modul	-10.8298
▁Kill	-10.8299
enburg	-10.8302
▁everyone	-10.8305
▁adding	-10.8307
▁Mediterranean	-10.8308
▁prohibit	-10.8308
▁Campbell	-10.8309
▁Derby	-10.8311
▁possession	-10.8313
▁resum	-10.8314
▁tru	-10.8316
68	-10.8316
▁electrical	-10.8318
▁helping	-10.8319
rog	-10.8323
▁Protestant	-10.8324
▁Math	-10.8328
▁Such	-10.833
tique	-10.8336
▁por	-10.8337
▁Legislativ	-10.8341
▁Charlotte	-10.8341
▁Along	-10.8342
▁63	-10.8347
▁Wright	-10.8351
▁approval	-10.8357
▁consequence	-10.8357
▁reporter	-10.8361
▁Nova	-10.8363
engaged	-10.8369
▁Baker	-10.8373
▁physician	-10.8373
▁Marshall	-10.8373
▁loyal	-10.8373
▁Victorian	-10.8373
▁commenc	-10.8373
▁affiliat	-10.8377
refore	-10.8378
▁portrayed	-10.8378
▁blow	-10.8382
▁holiday	-10.8389
▁Information	-10.8389
▁fold	-10.839
▁cited	-10.8393
▁Step	-10.8396
azi	-10.8397
▁creative	-10.8397
▁weekend	-10.8398
▁ready	-10.8405
▁inhabit	-10.8405
▁Birmingham	-10.8405
▁acknowledg	-10.8405
bank	-10.8406
plat	-10.8408
▁1893	-10.8414
▁mere	-10.8415
▁tape	-10.8415
▁Flor	-10.8417
ffe	-10.842
▁explor	-10.8421
▁Fleet	-10.8422
▁reinforc	-10.8422
▁77	-10.8428
▁10,000	-10.8429
hawk	-10.8432
story	-10.8433
▁revolution	-10.8434
some	-10.8447
61	-10.845
▁cinema	-10.8455
▁Evans	-10.8456
phosph	-10.8456
▁Rat	-10.8457
ault	-10.8459
▁Last	-10.8462
▁thin	-10.847
▁calendar	-10.8471
▁throne	-10.8471
oso	-10.8472
▁dramatic	-10.8472
TS	-10.8472
hall	-10.8478
▁examin	-10.8479
▁Sometime	-10.8485
osis	-10.8486
▁maintenance	-10.8487
▁sharp	-10.8487
▁Lock	-10.8496
▁electro	-10.8499
▁Peninsula	-10.8503
▁phrase	-10.8503
▁visible	-10.8503
▁transportation	-10.8506
63	-10.8506
▁apparently	-10.8509
▁affairs	-10.8519
▁drummer	-10.8522
▁interaction	-10.8525
62	-10.8533
▁portray	-10.8533
▁Tha	-10.8534
▁declin	-10.8536
stream	-10.8539
▁Delhi	-10.854
▁Alice	-10.8544
▁sum	-10.8547
▁Vancouver	-10.8553
▁electoral	-10.8553
▁coup	-10.8555
▁signing	-10.8555
59	-10.8557
ON	-10.8561
▁Rem	-10.8567
▁Orleans	-10.8569
ntil	-10.8572
▁MA	-10.8572
▁Wat	-10.8576
▁sang	-10.8576
▁nest	-10.8579
▁Henri	-10.858
▁diploma	-10.8583
▁nurse	-10.8586
▁drew	-10.8592
▁spend	-10.8598
mill	-10.8602
▁Lithuania	-10.8602
▁romantic	-10.8602
▁Alliance	-10.8602
rock	-10.8607
▁comput	-10.8607
raz	-10.8608
▁remainder	-10.8608
▁settlers	-10.861
▁penalty	-10.8619
▁patient	-10.8619
▁relief	-10.862
▁tied	-10.8623
▁extreme	-10.8624
▁Rosa	-10.8629
▁makeup	-10.8631
▁Energy	-10.8635
▁competitive	-10.8635
Mar	-10.8638
▁whil	-10.8639
▁VI	-10.8641
▁Theater	-10.8644
▁roots	-10.8646
▁turning	-10.8649
dding	-10.8652
▁transmitt	-10.8652
▁Scout	-10.8656
▁compil	-10.8663
▁99	-10.8667
▁Jerusalem	-10.8669
▁trading	-10.8669
▁Fun	-10.8673
▁Carlos	-10.8679
▁begun	-10.8679
▁substitute	-10.8685
▁Richmond	-10.8686
▁Guinea	-10.8686
▁Draft	-10.8687
▁Near	-10.8691
▁Syria	-10.8693
oke	-10.8695
owski	-10.8696
▁Turk	-10.8697
▁Comm	-10.8699
▁68	-10.8699
ility	-10.87
distribut	-10.8701
▁Confederate	-10.8702
▁accomplish	-10.8702
▁Treaty	-10.8702
▁businessman	-10.8707
length	-10.8708
away	-10.8715
▁Universal	-10.8719
▁essay	-10.8719
▁Season	-10.8721
▁constitut	-10.8725
▁root	-10.8729
▁administer	-10.8736
▁insurance	-10.8736
▁departure	-10.8737
TE	-10.874
▁Socialist	-10.8745
▁Slav	-10.8746
▁bacteria	-10.8752
▁controversy	-10.8752
▁rifle	-10.8753
▁monarch	-10.8753
OR	-10.8755
▁bid	-10.8758
▁indicated	-10.8759
▁Coach	-10.876
▁Dead	-10.8762
▁molecule	-10.8769
▁Movement	-10.8769
▁strict	-10.877
▁doesn	-10.877
etta	-10.8772
piece	-10.8776
▁Gon	-10.8777
shore	-10.8778
▁Mother	-10.8781
▁Caribbean	-10.8786
▁injuries	-10.8786
▁bull	-10.8788
▁practical	-10.8791
▁1865	-10.8794
▁1850	-10.8796
▁borough	-10.8797
▁250	-10.88
▁Had	-10.8802
▁suffering	-10.8802
▁verse	-10.8803
comb	-10.8805
lash	-10.8807
▁Vel	-10.8807
▁amongst	-10.8809
▁Child	-10.881
▁Horn	-10.8811
▁Secret	-10.8818
▁Bristol	-10.882
▁Charlie	-10.8822
residing	-10.8822
▁virus	-10.8823
CP	-10.8824
▁golf	-10.8824
▁weigh	-10.8824
ín	-10.8827
▁bringing	-10.883
cott	-10.8831
▁preserve	-10.8832
read	-10.8833
ID	-10.8836
▁cartoon	-10.8837
▁ruling	-10.8837
▁pit	-10.8839
▁Model	-10.8841
▁frequent	-10.8842
aught	-10.8847
roll	-10.8852
▁impos	-10.8852
én	-10.8853
uka	-10.8854
▁categories	-10.8854
▁venture	-10.8854
▁alliance	-10.8854
▁scholarship	-10.8856
▁developer	-10.8857
flow	-10.8858
▁Warner	-10.8861
RNA	-10.8861
▁CO	-10.887
uda	-10.887
▁accurate	-10.8871
▁minimum	-10.8871
▁Psych	-10.8871
▁Madrid	-10.8872
▁download	-10.8874
▁Susan	-10.8875
▁preparation	-10.8876
▁exit	-10.8882
course	-10.8884
▁acclaim	-10.8888
teau	-10.8889
▁Gan	-10.889
active	-10.8891
▁percentage	-10.8896
▁Maine	-10.8897
▁Lor	-10.89
▁Bart	-10.8902
scale	-10.8903
ün	-10.8904
▁swimming	-10.8905
▁Bird	-10.8908
▁Much	-10.8911
▁1861	-10.8911
EA	-10.8913
▁Mess	-10.8916
ception	-10.8916
▁evolution	-10.8918
▁hurricane	-10.8922
▁activat	-10.8923
▁Rou	-10.893
▁1897	-10.8936
▁73	-10.8939
▁corporate	-10.8939
▁Aviation	-10.8939
tem	-10.8943
▁Trail	-10.8948
▁FI	-10.895
game	-10.8961
▁dimension	-10.8964
hm	-10.8964
▁truth	-10.8973
▁violent	-10.8974
▁personality	-10.8975
▁workshop	-10.8976
▁Greater	-10.8976
▁shock	-10.8976
–17	-10.8978
▁67	-10.8982
▁neck	-10.8982
▁Hat	-10.8983
mouth	-10.8984
▁Syn	-10.8987
▁1894	-10.8987
▁advocate	-10.8989
▁agencies	-10.8991
▁Serbian	-10.8994
▁promis	-10.8997
▁heir	-10.9
▁61	-10.9005
▁Storm	-10.9008
▁UEFA	-10.9008
▁Natural	-10.9008
jun	-10.901
PI	-10.901
▁experimental	-10.901
mission	-10.901
▁Get	-10.9013
▁Ice	-10.9015
▁Notable	-10.9016
53	-10.9019
▁98	-10.9023
▁Serbia	-10.9023
▁Ivan	-10.9024
54	-10.9028
▁conservation	-10.9029
▁viewers	-10.9035
lob	-10.9036
▁Portland	-10.9039
▁infection	-10.904
▁Hampshire	-10.9043
▁absence	-10.9043
▁Kai	-10.9043
▁valid	-10.9044
▁Plant	-10.9049
▁Jason	-10.9051
ulf	-10.906
▁Raja	-10.906
▁Bosnia	-10.9061
▁considerabl	-10.9064
borne	-10.9067
▁Scar	-10.9072
mur	-10.9072
▁mandat	-10.9073
smith	-10.9074
▁electron	-10.9076
▁Glasgow	-10.9077
▁Ple	-10.9078
▁Wayne	-10.9086
▁promise	-10.9092
▁Pun	-10.9093
▁vessel	-10.9095
▁mammal	-10.9095
▁Challenge	-10.9095
▁86	-10.9096
▁Anglo	-10.9096
▁Parish	-10.9104
▁Pier	-10.9104
▁1885	-10.9105
▁contribution	-10.9106
▁enzyme	-10.9112
▁strategic	-10.9112
▁architectural	-10.9113
▁conclusion	-10.9114
▁Commissioner	-10.9114
▁Uni	-10.9115
▁assembl	-10.9117
▁76	-10.9119
-20	-10.9121
▁customers	-10.9128
▁duo	-10.9129
▁succeed	-10.9132
▁Blu	-10.9133
▁negotiat	-10.9145
▁Wrestling	-10.9147
▁1888	-10.9156
52	-10.9157
▁Armenian	-10.9159
▁kilometer	-10.9165
▁Spirit	-10.9165
▁Authority	-10.9167
▁leaf	-10.9168
▁consult	-10.9171
▁fled	-10.9175
▁collective	-10.9178
▁tissue	-10.9182
brook	-10.9192
▁1892	-10.9195
DI	-10.9195
▁cattle	-10.92
▁Prussia	-10.92
▁stick	-10.9201
▁82	-10.9207
iko	-10.9216
▁Benjamin	-10.9217
▁opportunities	-10.9217
▁thirteen	-10.9217
▁tackle	-10.9217
▁Munich	-10.9218
▁Hunter	-10.9226
▁explore	-10.9228
▁Eight	-10.923
▁mineral	-10.9231
▁relation	-10.9233
▁oxygen	-10.9235
▁Organization	-10.9236
leg	-10.9238
▁Gmin	-10.924
▁Hum	-10.9246
▁Gui	-10.9248
cene	-10.9252
▁equipped	-10.9253
▁Kenya	-10.9253
▁reduction	-10.9258
▁Zone	-10.9265
amine	-10.9269
▁sponsored	-10.927
▁funeral	-10.927
▁communist	-10.927
▁organize	-10.9271
▁resident	-10.9277
▁participation	-10.9278
▁Staff	-10.9284
▁1889	-10.9285
▁vast	-10.9286
kka	-10.9294
▁Mario	-10.9295
▁Pot	-10.9296
General	-10.93
▁Muhammad	-10.9306
▁endemic	-10.9306
▁extent	-10.9306
▁mistake	-10.9307
igan	-10.9307
▁Small	-10.9311
▁Rangers	-10.9311
▁Swan	-10.9314
▁supporters	-10.9315
▁Historical	-10.9315
▁recommended	-10.9318
▁Peru	-10.9319
▁Beijing	-10.9324
▁publicly	-10.9325
▁Gau	-10.9325
▁Thailand	-10.9326
▁Andy	-10.9328
ensis	-10.9328
▁Cuba	-10.9331
▁Rico	-10.9348
▁Burg	-10.9351
▁pole	-10.9356
▁cash	-10.9357
▁muscle	-10.9359
▁exceed	-10.936
▁Control	-10.936
▁voting	-10.9361
▁render	-10.9362
▁myth	-10.9362
gni	-10.9363
▁Barry	-10.9368
vit	-10.9374
▁Jazz	-10.9381
vir	-10.9383
▁Orange	-10.9385
rite	-10.9386
itis	-10.9388
▁rang	-10.9395
▁Warren	-10.9395
▁physics	-10.9395
▁superior	-10.9395
▁analog	-10.9395
▁facing	-10.9395
▁spa	-10.9398
▁immediate	-10.9402
elected	-10.9407
▁Cent	-10.9413
▁serial	-10.9413
▁trend	-10.9413
▁Salt	-10.9414
Calais	-10.9415
▁96	-10.9416
▁Div	-10.9417
ashi	-10.9418
▁performer	-10.9427
▁Vale	-10.9429
▁69	-10.9431
▁earthquake	-10.9431
▁symptom	-10.9431
▁Pierre	-10.9437
fil	-10.9438
▁800	-10.944
▁Found	-10.9441
▁EU	-10.9444
▁solar	-10.9444
▁realize	-10.9445
▁lowest	-10.9449
▁destruction	-10.9449
▁Ton	-10.9449
57	-10.9451
▁concerned	-10.9453
▁cargo	-10.9454
▁interpretation	-10.9457
▁anyone	-10.9457
▁grandfather	-10.9467
▁monastery	-10.9467
▁Range	-10.9468
▁speaking	-10.9472
▁Brun	-10.9476
▁Ian	-10.9476
▁Gray	-10.9484
▁rhythm	-10.9485
▁Clinton	-10.9485
ennial	-10.9488
▁Dog	-10.949
▁Jar	-10.9492
ground	-10.9497
▁hyper	-10.95
▁fin	-10.95
▁Manhattan	-10.9503
▁Microsoft	-10.9503
▁absorb	-10.9503
▁slope	-10.9504
▁moderate	-10.9504
rush	-10.9506
DE	-10.9507
000	-10.9507
58	-10.9507
▁earn	-10.9509
▁closer	-10.9511
SL	-10.9513
▁tenure	-10.9515
▁Esp	-10.9517
▁Basketball	-10.9521
▁Hitler	-10.9521
▁lease	-10.9526
gran	-10.953
▁implementation	-10.9533
▁Video	-10.9535
▁curve	-10.9535
anthrop	-10.9537
▁yield	-10.954
▁Baptist	-10.954
▁depression	-10.954
▁radical	-10.954
pra	-10.9541
▁Nation	-10.9546
▁Horse	-10.955
cross	-10.9551
cession	-10.9551
▁package	-10.9554
▁Nicholas	-10.9558
▁Pradesh	-10.9558
▁Together	-10.9558
▁advertising	-10.9558
▁disband	-10.956
▁Leonard	-10.9561
▁decrease	-10.9563
▁88	-10.9565
▁1863	-10.9565
▁electricity	-10.9566
bird	-10.9566
▁rider	-10.9568
▁exile	-10.9569
operative	-10.9572
▁demolished	-10.9576
▁discipline	-10.9576
eligible	-10.9576
Man	-10.9576
▁anchor	-10.9579
wen	-10.9583
▁ensu	-10.9588
called	-10.959
▁Bachelor	-10.9594
▁crystal	-10.9594
▁infrastructure	-10.9594
▁chronic	-10.9594
▁alternate	-10.9595
lé	-10.9596
word	-10.9598
▁attraction	-10.9603
▁Blo	-10.9608
▁Box	-10.9611
▁Grammy	-10.9613
▁advice	-10.9613
gro	-10.9613
▁shelter	-10.9613
▁larva	-10.9617
▁Ruth	-10.9618
▁grey	-10.9618
▁undergo	-10.962
▁Hope	-10.9621
▁soldier	-10.9622
▁Kirk	-10.9624
▁Costa	-10.9625
▁74	-10.963
▁Century	-10.9631
▁Venezuela	-10.9631
▁servant	-10.9631
▁wrestling	-10.9631
▁Engineer	-10.9639
ovich	-10.9647
▁Ship	-10.9649
▁indigenous	-10.9649
▁Latino	-10.9653
▁1862	-10.9656
▁preferr	-10.9659
PR	-10.9659
▁Chan	-10.966
▁Virgin	-10.9663
incorporated	-10.9665
▁Argentine	-10.9668
▁lieutenant	-10.9668
▁possibility	-10.9668
▁stimul	-10.9668
▁Athens	-10.9668
▁opt	-10.9669
▁mechanical	-10.9671
▁tram	-10.9683
▁McL	-10.9683
▁Similar	-10.9686
▁utiliz	-10.9686
▁cloud	-10.9686
▁excess	-10.9686
iano	-10.9688
▁Code	-10.9688
▁1864	-10.9694
▁gear	-10.9694
▁Bert	-10.9695
▁broadcasting	-10.9695
▁dynamic	-10.9696
RO	-10.9698
clo	-10.9701
orient	-10.9703
▁corporation	-10.9705
▁specimen	-10.9705
ogue	-10.9705
▁78	-10.9705
▁Freedom	-10.9706
▁600	-10.9707
▁Kor	-10.9711
▁Hai	-10.9712
▁steal	-10.9712
▁Section	-10.9715
qual	-10.9717
▁clothing	-10.972
▁predecessor	-10.9723
▁charity	-10.9723
▁slowly	-10.9728
PC	-10.9735
▁unre	-10.9735
▁Harrison	-10.9736
▁finger	-10.9738
▁basin	-10.974
▁plastic	-10.9742
▁publish	-10.9742
▁recognize	-10.9756
▁spending	-10.976
▁territories	-10.976
▁constitutional	-10.9762
▁Jet	-10.9766
▁defender	-10.977
▁Gary	-10.977
▁belonging	-10.9775
▁Paralympic	-10.9779
▁Hebrew	-10.9779
ör	-10.9784
▁Indo	-10.9786
▁Amb	-10.9787
▁Late	-10.9789
▁Beth	-10.979
▁falling	-10.9793
▁SC	-10.9793
▁interact	-10.9794
▁farmers	-10.9796
▁Schu	-10.98
▁dozen	-10.9802
bilities	-10.9803
▁Kel	-10.9806
▁Fur	-10.9813
ía	-10.9813
▁Territory	-10.9816
▁fundamental	-10.9816
▁intellectual	-10.9816
▁Culture	-10.9816
▁vertical	-10.9818
▁competitor	-10.9818
bun	-10.9819
making	-10.9819
▁traditionally	-10.982
▁parliamentary	-10.982
▁Isle	-10.982
▁guilty	-10.9835
▁happy	-10.9835
hom	-10.9837
▁poison	-10.9837
▁dual	-10.984
▁Fat	-10.9842
▁1891	-10.9863
▁conductor	-10.9869
hav	-10.987
▁CE	-10.9871
▁smooth	-10.9873
▁Limited	-10.9873
▁81	-10.9876
▁sixteen	-10.9878
▁Parker	-10.9879
▁Tin	-10.9881
▁assert	-10.9884
▁copper	-10.9892
▁hunting	-10.99
▁fourteen	-10.9901
▁elect	-10.9903
▁submitt	-10.991
▁Trophy	-10.9912
▁insist	-10.9914
▁partially	-10.9914
▁distinction	-10.9915
▁strengthen	-10.9925
made	-10.9926
▁functional	-10.9927
wald	-10.9928
▁helicopter	-10.9929
▁substance	-10.9929
▁Joan	-10.993
▁comparison	-10.9931
RE	-10.9935
▁quick	-10.994
▁operational	-10.9943
▁industries	-10.9948
▁suspended	-10.9948
▁resort	-10.9949
▁petition	-10.9949
▁Eve	-10.9956
▁execution	-10.9956
▁Beat	-10.996
▁employment	-10.9963
▁1.5	-10.9966
▁circumstance	-10.9967
▁inscription	-10.9968
▁icon	-10.9969
▁Branch	-10.9971
▁rarely	-10.9972
▁prepare	-10.9976
▁Rud	-10.9977
▁Arena	-10.9977
source	-10.9982
ön	-10.9982
▁Symphony	-10.9986
▁wicket	-10.9987
crat	-10.9987
▁Formula	-10.9987
▁Urban	-10.9988
▁Grade	-10.999
▁householder	-10.9995
▁1886	-10.9997
▁71	-10.9999
▁91	-11.0003
▁intercept	-11.0004
▁Punjab	-11.0005
▁ninth	-11.0005
▁integrated	-11.0009
–16	-11.0009
▁rising	-11.0009
▁Grace	-11.001
rift	-11.0014
▁attending	-11.0017
mun	-11.0019
▁Abu	-11.0022
▁expensive	-11.0024
▁isolated	-11.0025
▁altitude	-11.0026
▁Abdul	-11.0027
▁84	-11.0029
central	-11.0031
▁1881	-11.0032
▁restoration	-11.004
▁Food	-11.0042
▁Norfolk	-11.0043
▁Defence	-11.0045
iness	-11.0047
▁stroke	-11.0049
OM	-11.0051
▁Grey	-11.0052
▁Nik	-11.0052
ograph	-11.0054
▁treaty	-11.0059
▁Cricket	-11.0063
▁ritual	-11.0063
▁violin	-11.0063
▁eighteen	-11.0063
▁reward	-11.0068
▁Pie	-11.008
▁Males	-11.0082
▁Walt	-11.0083
ña	-11.0095
▁Mall	-11.0095
▁terminat	-11.0098
▁installation	-11.0101
▁ignor	-11.0103
▁Tang	-11.0104
▁visiting	-11.0107
FM	-11.0107
▁exact	-11.0115
▁friendly	-11.0116
▁devoted	-11.0117
▁Studio	-11.0118
▁Pic	-11.0119
▁Archbishop	-11.012
▁horror	-11.012
▁loose	-11.0123
nell	-11.0127
plan	-11.0132
▁Iranian	-11.0135
▁Training	-11.0135
▁Buddhist	-11.014
▁WWE	-11.014
▁Dai	-11.014
▁Blood	-11.0143
▁logic	-11.0144
▁evil	-11.0146
aged	-11.0148
▁1884	-11.0149
▁1876	-11.015
▁oppos	-11.0153
▁Construction	-11.0159
▁choir	-11.0159
▁93	-11.0163
dependent	-11.0165
▁Maj	-11.0168
▁peer	-11.0177
▁meat	-11.0178
▁neighbour	-11.0178
▁recipient	-11.0178
▁universe	-11.0178
▁Jerry	-11.0179
▁cri	-11.018
▁database	-11.0183
▁songwriter	-11.0184
▁1879	-11.0187
▁elde	-11.0192
▁abroad	-11.0198
▁Philippine	-11.0199
▁Bud	-11.0204
▁wound	-11.0214
▁coalition	-11.0218
▁keyboard	-11.0219
▁sword	-11.0221
LS	-11.0223
▁Wu	-11.0223
▁Broad	-11.0226
uru	-11.0226
▁Xi	-11.0228
▁vocalist	-11.0229
plane	-11.0231
iah	-11.0232
▁inspiration	-11.0237
▁Vincent	-11.0238
▁fertil	-11.0238
▁merger	-11.0241
ambo	-11.0248
▁innings	-11.0248
▁Cold	-11.0257
▁riding	-11.0258
▁precede	-11.0259
▁speculat	-11.0259
▁closing	-11.0262
▁loop	-11.0263
▁83	-11.027
▁79	-11.0276
▁Attorney	-11.0276
▁excellent	-11.0276
▁Gabriel	-11.0276
▁remote	-11.0276
▁verb	-11.0278
▁fame	-11.0278
vari	-11.0284
▁progressive	-11.0284
dell	-11.0285
▁Def	-11.0287
▁characterized	-11.0289
–5	-11.0289
▁destination	-11.0295
▁simultaneous	-11.0295
▁Abbey	-11.0295
▁Snow	-11.0296
▁summit	-11.0296
uzz	-11.03
▁reverse	-11.03
▁Allied	-11.0301
eastern	-11.0303
pop	-11.0303
▁moon	-11.0307
▁contribute	-11.0308
▁alive	-11.0308
▁Associate	-11.031
▁Bryan	-11.0313
▁Stre	-11.0313
▁evolved	-11.0315
▁algorithm	-11.0315
▁prayer	-11.0315
etti	-11.032
▁Monday	-11.0322
CT	-11.0324
▁Hur	-11.0326
berry	-11.033
▁Hurricane	-11.0335
▁imperial	-11.0335
▁warning	-11.0335
titude	-11.0338
▁Mul	-11.0339
▁Fen	-11.0341
ffer	-11.0343
▁wealth	-11.0344
▁challeng	-11.0344
▁Yan	-11.0346
▁Kath	-11.0349
▁sick	-11.0354
▁Brisbane	-11.0354
▁labour	-11.0354
▁snail	-11.0354
▁disaster	-11.0355
▁boundaries	-11.0355
▁biological	-11.0358
odor	-11.0365
▁kilometre	-11.0374
▁Trinity	-11.0374
▁immun	-11.0374
▁outstanding	-11.0375
▁Barbara	-11.0375
▁Collins	-11.0376
▁permission	-11.0377
▁sure	-11.0379
100	-11.038
▁Temp	-11.0385
▁alien	-11.0387
▁Professional	-11.0394
▁fragment	-11.0394
▁timber	-11.0394
▁extract	-11.0395
▁shopping	-11.0396
gil	-11.0397
▁1871	-11.0403
▁Fine	-11.0407
▁measured	-11.0407
▁Nintendo	-11.0414
bha	-11.0414
▁outdoor	-11.0414
▁milk	-11.0415
▁organic	-11.0418
▁silent	-11.0421
▁examination	-11.0422
▁sung	-11.0428
▁cab	-11.0428
▁wearing	-11.0432
▁Assistant	-11.0434
▁subsidiary	-11.0434
▁qualification	-11.0434
gno	-11.0439
▁organism	-11.0441
▁flash	-11.0441
▁kg	-11.0446
▁1887	-11.0449
▁Cultural	-11.0454
▁Mitchell	-11.0454
▁Eventual	-11.0454
▁cultivat	-11.0454
▁banned	-11.0454
▁latest	-11.0458
▁rocket	-11.0467
▁Transport	-11.047
▁cult	-11.0473
▁brigade	-11.0474
▁reception	-11.0482
▁Kre	-11.0487
naut	-11.0493
▁tribute	-11.0494
▁Sultan	-11.0494
▁Where	-11.0494
▁mixture	-11.0495
winning	-11.0495
▁Arabia	-11.0497
▁Gru	-11.05
▁complet	-11.0503
▁photographer	-11.0503
CR	-11.0507
lift	-11.0512
▁Further	-11.0514
▁Iceland	-11.0517
▁Disc	-11.0522
CO	-11.0522
space	-11.0528
vre	-11.0529
esis	-11.053
▁deployed	-11.0534
▁predominant	-11.0534
▁jail	-11.0534
▁Florence	-11.0536
zza	-11.0536
dorf	-11.0539
▁Add	-11.054
▁exclusively	-11.0541
▁Carol	-11.0549
tempo	-11.055
▁Kun	-11.0551
▁sponsor	-11.0553
▁Dakota	-11.0554
▁Ridge	-11.0554
▁Sign	-11.0555
▁literal	-11.0557
itially	-11.0558
▁Robin	-11.0561
▁Start	-11.0562
▁Track	-11.0567
▁assets	-11.0569
▁minority	-11.0571
▁Jonathan	-11.0574
▁Alberta	-11.0576
▁Racing	-11.0581
▁clinical	-11.0582
▁Brit	-11.0584
▁arc	-11.0589
▁Ent	-11.0591
▁universal	-11.0594
▁signature	-11.0595
▁Comb	-11.0597
▁faction	-11.0602
▁2.5	-11.0602
▁Java	-11.0607
▁Buffalo	-11.0614
▁Support	-11.0614
▁queen	-11.0615
▁Bobby	-11.0619
▁bag	-11.062
group	-11.0624
▁Thor	-11.0628
▁narrat	-11.0633
▁excavat	-11.0635
▁exclud	-11.0635
▁blind	-11.0635
▁Corr	-11.0642
▁Broadcasting	-11.0655
▁beating	-11.0657
building	-11.0657
▁equi	-11.066
▁Pyr	-11.0663
▁Christianity	-11.0664
▁recreation	-11.0675
▁cluster	-11.0675
front	-11.0689
▁Hold	-11.0692
▁Ancient	-11.0696
ffin	-11.0707
▁conquer	-11.0716
▁tract	-11.0721
guard	-11.0722
▁traded	-11.0736
▁acquisition	-11.0737
▁cathedral	-11.0737
▁Jamaica	-11.0737
▁Furthermore	-11.0737
AL	-11.0738
▁Chen	-11.0746
▁dish	-11.075
▁Still	-11.0753
▁Alp	-11.0757
▁Lloyd	-11.0757
▁perspective	-11.0757
▁photography	-11.0761
▁Luke	-11.0765
▁Mile	-11.0766
▁Adelaide	-11.0778
▁emphasis	-11.0778
▁exploit	-11.0778
▁usual	-11.0781
▁corps	-11.0781
▁Clay	-11.0788
▁danger	-11.0796
▁Borough	-11.08
▁component	-11.0801
▁researchers	-11.0803
▁Owen	-11.0806
force	-11.0809
▁wealthy	-11.0809
▁Catherine	-11.0819
▁Newcastle	-11.0819
augural	-11.0819
▁terminus	-11.0819
▁Hudson	-11.0819
▁oblig	-11.0819
▁Croatia	-11.082
▁specialist	-11.0821
▁random	-11.0822
▁Minor	-11.0826
▁punk	-11.0826
▁Magic	-11.0831
▁deck	-11.0838
▁adjust	-11.084
▁Warsaw	-11.0841
–10	-11.0842
▁sitting	-11.0842
▁favorite	-11.0845
▁hypo	-11.0856
▁Lil	-11.0858
▁Hugh	-11.0858
▁Phoenix	-11.0861
▁pronounc	-11.0861
▁Political	-11.0861
▁narrative	-11.0864
▁Estonia	-11.0866
nick	-11.0873
▁1800	-11.0876
▁topics	-11.0877
▁faster	-11.088
▁Publish	-11.0881
▁Ethiopia	-11.0881
▁escort	-11.0881
▁exposure	-11.0884
▁Maz	-11.0884
▁measurement	-11.0889
▁Turner	-11.0891
▁attain	-11.0893
▁£1	-11.0905
▁Soul	-11.0917
▁cemetery	-11.0923
▁dominant	-11.0923
▁Stuart	-11.0923
hua	-11.0924
▁Wang	-11.0927
IM	-11.0931
▁Grove	-11.0933
▁Reich	-11.0937
hum	-11.094
▁fitted	-11.0945
▁Fish	-11.0948
▁pursu	-11.0949
▁worn	-11.0965
▁Rabbi	-11.0965
▁jet	-11.097
DC	-11.0972
▁Leeds	-11.0974
▁Woman	-11.0976
▁apparent	-11.0979
utonomous	-11.0986
▁Digital	-11.0986
▁legislature	-11.0986
eath	-11.0987
▁Sig	-11.0988
▁belt	-11.0991
▁voters	-11.0997
▁permit	-11.0998
ducted	-11.1
▁philosopher	-11.1007
▁Computer	-11.1007
▁compensat	-11.1007
▁cancelled	-11.1007
▁Oliver	-11.1007
▁Audi	-11.1015
▁shall	-11.1016
▁tale	-11.1018
▁Amsterdam	-11.1028
▁Barcelona	-11.1028
▁Survey	-11.1028
▁identical	-11.1028
▁zero	-11.1029
▁Gilbert	-11.1029
▁Herbert	-11.1037
▁stab	-11.1038
chlor	-11.1039
market	-11.1039
families	-11.1039
▁Case	-11.1043
▁tune	-11.1044
wel	-11.1049
▁usage	-11.1049
▁snake	-11.1049
▁vector	-11.1049
▁commitment	-11.1053
▁elementary	-11.1054
▁pastor	-11.1056
▁tension	-11.1056
▁hence	-11.1057
▁originated	-11.1059
▁exactly	-11.1059
▁Organ	-11.1061
amba	-11.1062
▁LP	-11.1064
HA	-11.1066
▁designation	-11.1067
clusion	-11.1068
▁Nevada	-11.1071
▁perceiv	-11.1071
▁simulat	-11.1071
▁Petersburg	-11.1073
▁internet	-11.1073
▁Type	-11.1076
▁acres	-11.1076
▁Thos	-11.1077
▁1874	-11.1079
▁Stein	-11.1084
▁rice	-11.1088
▁Jefferson	-11.1092
▁Advanc	-11.1093
hurst	-11.1094
▁Bavaria	-11.1094
▁mainstream	-11.1095
jar	-11.1109
▁linear	-11.1109
▁qualify	-11.1111
kara	-11.1111
▁combine	-11.1113
crypt	-11.1114
▁Take	-11.1117
▁Celtic	-11.1117
▁fluid	-11.1119
▁logo	-11.1122
▁gap	-11.1124
▁phil	-11.1125
language	-11.1125
▁exclusive	-11.1128
▁ambassador	-11.1134
▁counsel	-11.1134
▁efficient	-11.1134
▁motivat	-11.1134
▁empire	-11.1134
▁breast	-11.1134
▁gross	-11.1135
▁accessible	-11.1138
▁flee	-11.114
▁profile	-11.1147
▁Terry	-11.1149
▁arriv	-11.1152
▁Language	-11.1156
▁100,000	-11.1162
▁Former	-11.1169
▁homo	-11.1171
▁certifi	-11.1177
▁pump	-11.1177
▁enlist	-11.118
▁Eye	-11.118
▁Craig	-11.1186
▁Marc	-11.1187
▁bath	-11.1188
ño	-11.1189
▁Guardian	-11.119
▁Side	-11.1194
▁trap	-11.1195
▁graduation	-11.1202
▁Mason	-11.1205
▁capita	-11.1209
▁licens	-11.1209
▁Luis	-11.1214
ophil	-11.1214
▁Right	-11.122
▁MTV	-11.122
▁artificial	-11.122
▁remix	-11.122
wall	-11.122
atta	-11.1223
▁birthday	-11.1224
▁diverse	-11.1224
▁1867	-11.1229
▁mall	-11.1231
▁Sau	-11.1237
▁fifty	-11.1242
▁emigrat	-11.1242
▁odd	-11.1244
▁ongoing	-11.1247
▁Actor	-11.125
▁1882	-11.1251
▁1872	-11.1252
▁diet	-11.1254
▁Romaniz	-11.1262
▁sweet	-11.1263
▁telephone	-11.1264
▁Drama	-11.1267
high	-11.1268
▁Fel	-11.127
lang	-11.1275
▁Rap	-11.1278
▁bachelor	-11.1285
▁conversion	-11.1285
▁Mut	-11.1286
▁conventional	-11.129
▁celebrate	-11.1294
▁till	-11.1299
tention	-11.1301
chang	-11.1305
▁cavalry	-11.1307
▁congregation	-11.1307
▁discontinu	-11.1307
▁enemies	-11.1307
▁participat	-11.1307
▁gallery	-11.1307
▁Tibet	-11.1308
Saxon	-11.1316
▁describ	-11.1317
▁Andrea	-11.1318
▁sheet	-11.1318
▁Chapel	-11.1331
▁genera	-11.1344
▁generated	-11.1345
▁Independence	-11.135
▁evacuat	-11.135
▁republic	-11.135
▁resolve	-11.135
▁affair	-11.1351
▁contestant	-11.1351
▁float	-11.1351
▁Pedro	-11.1354
flew	-11.1356
▁1883	-11.136
▁Municipal	-11.1368
▁Than	-11.1369
▁arrondissement	-11.1372
▁cooperation	-11.1372
▁Essex	-11.1372
▁Ground	-11.1373
▁receiver	-11.138
▁index	-11.138
▁1878	-11.1382
–15	-11.1384
▁legislative	-11.1394
▁refuge	-11.1397
▁distinctive	-11.1401
▁hind	-11.1404
▁remark	-11.1404
▁Yama	-11.1408
ière	-11.1413
▁Fisher	-11.1413
▁condemn	-11.1416
▁doubt	-11.1416
▁Ghana	-11.1416
▁Direct	-11.1417
▁Deep	-11.1431
▁incumbent	-11.1438
▁nephew	-11.1438
...	-11.1438
▁Abraham	-11.1438
▁Idaho	-11.1438
▁Venice	-11.1441
▁Giants	-11.1442
▁reject	-11.1448
▁taxes	-11.146
▁Roosevelt	-11.146
▁enabl	-11.1467
▁Andre	-11.1469
action	-11.1471
▁siege	-11.1482
understood	-11.1483
▁Block	-11.1497
▁Saudi	-11.15
▁Google	-11.1504
▁ancestor	-11.1504
▁renown	-11.1504
▁worst	-11.1504
▁flank	-11.1504
▁smoke	-11.1504
▁Yale	-11.1505
dvisory	-11.1512
scribed	-11.1515
▁Julie	-11.1521
▁difficulties	-11.1521
▁Corp	-11.1524
▁saint	-11.1526
agne	-11.1527
▁Ober	-11.1528
▁stake	-11.1533
▁wrestler	-11.1534
▁register	-11.1539
▁outbreak	-11.1548
▁intervention	-11.1548
▁wage	-11.1549
▁Franco	-11.1556
▁Bond	-11.1558
▁jury	-11.1558
▁Crime	-11.156
▁theories	-11.1563
▁Gang	-11.1563
▁emotional	-11.157
▁guarantee	-11.1571
▁scatter	-11.1571
▁delegate	-11.1571
▁battery	-11.1572
▁trick	-11.1572
▁strange	-11.1576
▁tenth	-11.1581
released	-11.1588
▁structural	-11.1593
▁Soccer	-11.1593
▁Sex	-11.1596
▁Metal	-11.16
▁corresponding	-11.1604
▁Chester	-11.1605
är	-11.1607
▁suitabl	-11.1607
▁Perry	-11.161
▁hydrogen	-11.1615
▁atmosphere	-11.1615
▁humor	-11.1617
▁Madison	-11.1617
▁orange	-11.1619
▁costume	-11.1619
▁Mega	-11.1622
▁1868	-11.1624
▁mainland	-11.1626
▁Highland	-11.163
▁Sony	-11.1635
▁impossible	-11.1638
▁Meta	-11.1639
▁chemistry	-11.164
▁engagement	-11.1644
▁Lauren	-11.1646
raj	-11.1647
▁Walk	-11.165
MP	-11.166
▁Cincinnati	-11.166
▁beauty	-11.166
▁presum	-11.1662
uku	-11.1663
NO	-11.1671
▁Industrial	-11.1683
▁pianist	-11.1683
▁teeth	-11.1683
▁Pearl	-11.1684
▁Stand	-11.1685
▁undergraduate	-11.1686
▁Again	-11.1691
how	-11.1693
▁Rail	-11.1694
▁1875	-11.1697
.00	-11.1697
▁Tyr	-11.1703
▁entrepreneur	-11.1705
▁placing	-11.1705
▁Next	-11.1706
▁Obama	-11.1706
▁knee	-11.1707
▁radiation	-11.1715
▁sack	-11.1719
▁Site	-11.172
▁Dynasty	-11.1728
▁enthusias	-11.1728
▁permitted	-11.1728
▁Murphy	-11.1729
▁resemble	-11.1732
▁Bach	-11.1735
▁bench	-11.1742
▁absolute	-11.1751
▁Manuel	-11.1751
▁Comics	-11.1752
▁creature	-11.1755
▁Harold	-11.1757
▁Rhine	-11.1758
▁Larry	-11.1759
▁Holland	-11.1765
▁Antarctic	-11.1773
ngry	-11.1777
▁boot	-11.1778
–12	-11.1784
▁Plain	-11.1784
▁triple	-11.1789
▁Palestinian	-11.1796
▁accommodate	-11.1796
▁fabric	-11.1796
▁dancing	-11.1796
court	-11.1796
▁Vegas	-11.1797
▁Charter	-11.1805
▁1869	-11.1805
▁attitude	-11.1812
▁Turn	-11.1819
▁colonies	-11.1819
▁freight	-11.1819
▁confused	-11.1819
▁Multi	-11.1821
▁Marqu	-11.1825
▁lord	-11.1826
▁Marco	-11.1827
eaten	-11.183
▁Mou	-11.1833
▁hidden	-11.1843
▁Nine	-11.185
▁restriction	-11.185
▁Nature	-11.1864
▁prototype	-11.1865
▁Macedonia	-11.1865
▁intense	-11.1867
▁prepar	-11.1868
▁Epi	-11.1869
▁golden	-11.1882
▁Bio	-11.1883
▁noise	-11.1883
▁commit	-11.1891
▁PhD	-11.1891
–14	-11.1908
▁Croatian	-11.191
▁emphasiz	-11.1911
▁delivery	-11.1912
▁Interstate	-11.1912
▁1840	-11.1912
▁server	-11.1913
▁Harbor	-11.1913
▁punishment	-11.1914
▁teammate	-11.1914
SR	-11.1918
lateral	-11.1919
▁tight	-11.1919
▁2,000	-11.1924
▁blog	-11.1926
▁Raw	-11.193
world	-11.1932
▁Anglican	-11.1934
▁consumption	-11.1934
▁dialogue	-11.1934
▁Harvey	-11.1934
▁interchange	-11.1934
▁Article	-11.1934
▁interface	-11.1936
▁Micro	-11.1939
▁artwork	-11.194
▁Mine	-11.1941
▁wore	-11.1942
cil	-11.1946
theless	-11.1949
▁exam	-11.1953
▁suppress	-11.1957
▁Byzantine	-11.1957
▁Campaign	-11.1957
▁violation	-11.1957
▁Ralph	-11.1957
▁Bueno	-11.1957
▁Dennis	-11.1957
▁outcome	-11.1958
▁Keith	-11.196
▁cutting	-11.1965
▁grandson	-11.1966
figur	-11.1977
▁Diocese	-11.198
▁significance	-11.198
▁reducing	-11.198
brand	-11.1982
bir	-11.1982
▁respective	-11.1986
▁1866	-11.1991
▁corn	-11.1992
▁archive	-11.1992
▁Thai	-11.1994
▁undertake	-11.1996
▁demonstration	-11.1999
▁YouTube	-11.2003
▁alphabet	-11.2003
▁teenager	-11.2003
▁overseas	-11.2004
▁Lamb	-11.2004
▁Beside	-11.2006
▁corruption	-11.2008
▁reviv	-11.2015
▁Alexandr	-11.2021
▁crosses	-11.2024
chrom	-11.2026
▁behaviour	-11.2027
▁hybrid	-11.2027
▁explicit	-11.2027
▁Arnold	-11.2027
▁Technical	-11.2027
▁passion	-11.2027
▁afternoon	-11.2027
▁prospect	-11.2027
▁empty	-11.2027
▁Eddie	-11.2029
▁infect	-11.2031
▁mob	-11.2042
▁0.1	-11.2049
▁Slovenia	-11.205
▁neutral	-11.205
▁lawsuit	-11.2051
▁Flight	-11.2053
fir	-11.2053
▁supplied	-11.2067
▁Neil	-11.2067
▁Thr	-11.2069
▁donation	-11.2071
▁Shakespeare	-11.2074
▁Exchange	-11.2074
▁discharg	-11.2074
▁Nathan	-11.2077
nova	-11.2085
▁buses	-11.2086
▁Tag	-11.209
▁armor	-11.2091
▁Pack	-11.2094
▁Stockholm	-11.2097
▁receptor	-11.2097
▁comedian	-11.2098
▁confess	-11.2099
▁steep	-11.2101
shaw	-11.2102
▁repeat	-11.2106
▁manual	-11.2108
▁101	-11.2113
▁Haz	-11.2113
▁endors	-11.2117
zzo	-11.2118
▁enterprise	-11.2121
▁breath	-11.2121
▁Oscar	-11.2122
zhou	-11.2124
▁toxic	-11.2125
▁Watson	-11.2126
fusion	-11.2127
▁displac	-11.2127
▁lung	-11.213
▁transit	-11.2131
▁prefer	-11.2138
flex	-11.214
▁calculate	-11.2144
▁persuad	-11.2144
▁taste	-11.2145
▁Prague	-11.2147
▁knight	-11.2147
▁quarterback	-11.2148
▁partial	-11.215
▁Crow	-11.2151
▁1877	-11.2155
link	-11.216
▁weaken	-11.2162
▁comprehensive	-11.2168
▁regain	-11.2168
▁stamp	-11.2168
▁Hamburg	-11.217
utter	-11.2176
▁lyric	-11.2178
▁Devil	-11.2181
▁bullet	-11.2183
▁pitcher	-11.2184
▁decorated	-11.2192
▁citizen	-11.2198
▁presentation	-11.2206
izer	-11.2215
▁midfielder	-11.2215
▁Sierra	-11.2215
▁Adult	-11.2216
▁mask	-11.223
▁Rama	-11.2231
▁Bulgarian	-11.2235
▁accelerat	-11.2239
▁feud	-11.224
▁Algeria	-11.2242
▁frog	-11.2245
▁attendance	-11.2245
four	-11.2249
wind	-11.225
▁blam	-11.2255
▁supplement	-11.2263
▁companion	-11.2263
▁shield	-11.2263
▁Example	-11.2263
▁Lyon	-11.2264
▁reunit	-11.2264
IL	-11.2265
▁Tommy	-11.2266
▁Libya	-11.2268
▁Cruz	-11.2284
▁technologies	-11.2287
▁Warrior	-11.2287
▁scientist	-11.2298
▁110	-11.2307
hour	-11.2309
▁bonus	-11.2311
▁Ronald	-11.2311
▁Napoleon	-11.2316
▁lifetime	-11.2316
▁Georg	-11.2321
▁lover	-11.2323
▁Collection	-11.2335
▁Bulgaria	-11.2339
▁Cinema	-11.2339
valu	-11.2346
▁Guide	-11.2346
▁Train	-11.2346
▁Nebraska	-11.2359
▁victories	-11.2359
▁Delaware	-11.2359
▁gall	-11.2362
▁Chair	-11.2369
▁Bomb	-11.2372
▁headquarter	-11.2373
▁Syrian	-11.2373
▁introduce	-11.2374
▁Hughes	-11.2381
▁martial	-11.2383
▁sketch	-11.2383
▁Wheel	-11.2383
▁careful	-11.2389
▁1873	-11.2393
▁Marvel	-11.2393
▁RAF	-11.2395
▁filter	-11.2397
▁CDP	-11.2398
▁renovation	-11.2399
▁abbreviat	-11.2407
▁disagree	-11.2407
▁Sheffield	-11.2407
▁framework	-11.2409
▁neo	-11.2411
▁Rule	-11.2415
▁Todd	-11.2422
▁victim	-11.2423
▁Price	-11.2423
▁kit	-11.2424
▁complaint	-11.2427
▁metre	-11.2429
▁Palestine	-11.2432
▁kidnapp	-11.2432
▁reservoir	-11.2432
▁Diamond	-11.2432
stadt	-11.2435
▁therapy	-11.2436
▁dissolve	-11.2437
▁ballot	-11.244
fest	-11.2449
▁wider	-11.245
▁Brother	-11.2452
▁Montgomery	-11.2456
▁PlayStation	-11.2456
▁Auckland	-11.2456
▁commut	-11.2456
▁Gregory	-11.2457
▁Travel	-11.2459
▁diplomatic	-11.246
bell	-11.2466
elia	-11.2469
▁Devon	-11.2471
▁dense	-11.2478
0.0	-11.2479
▁Berkshire	-11.248
▁metropolitan	-11.248
▁raising	-11.248
▁mutual	-11.248
▁Wellington	-11.2482
▁archaeological	-11.2484
▁admit	-11.2484
▁proof	-11.2491
▁inventor	-11.2492
▁clay	-11.2494
▁abolished	-11.2505
▁welcome	-11.2505
▁valuable	-11.2505
▁laboratory	-11.2506
▁predator	-11.2507
▁diesel	-11.2507
▁Denver	-11.2508
▁Krist	-11.2509
▁landmark	-11.251
▁thanks	-11.2512
▁Stage	-11.2524
▁Electronic	-11.2529
▁Circuit	-11.2529
▁Thunder	-11.2531
▁Yang	-11.2542
▁focuse	-11.255
moto	-11.2551
▁expense	-11.2554
▁innovation	-11.2554
▁Concert	-11.2555
▁boss	-11.2555
▁hardware	-11.2556
▁southwestern	-11.2557
▁trait	-11.2562
TI	-11.2565
▁Justin	-11.2566
▁resignation	-11.2574
▁Ottawa	-11.2579
▁inhibit	-11.2579
▁aviation	-11.258
▁outlet	-11.258
▁Rosen	-11.2581
color	-11.2585
ww	-11.2587
▁Voice	-11.2587
▁resist	-11.2589
▁deem	-11.2594
▁Data	-11.2596
▁pregnan	-11.2602
▁Number	-11.2603
▁Wonder	-11.2603
▁erupt	-11.2604
▁rabbi	-11.2605
▁Guild	-11.2606
▁barrel	-11.2609
▁bigger	-11.2612
▁divide	-11.2612
▁comprises	-11.2613
▁Indonesian	-11.2618
▁easier	-11.2628
▁wake	-11.2629
▁drove	-11.2629
▁Thorn	-11.263
ça	-11.263
▁Stanford	-11.2631
▁shoe	-11.2634
▁Julian	-11.2636
▁Indies	-11.2636
▁Circle	-11.2638
▁generate	-11.2646
▁militia	-11.2653
▁enclos	-11.2653
author	-11.2658
▁Enterprise	-11.2678
▁coffee	-11.2678
▁communicat	-11.2679
▁indoor	-11.2682
▁roster	-11.2684
▁fastest	-11.2685
▁Nobel	-11.2689
▁derive	-11.2693
atus	-11.2694
▁hide	-11.2696
▁fatal	-11.2696
▁Industry	-11.2703
▁sovereign	-11.2703
▁warrior	-11.2703
▁Boeing	-11.2707
▁oversee	-11.2707
▁drag	-11.2709
▁Store	-11.2713
▁soap	-11.2719
▁premise	-11.2728
▁Protection	-11.2732
▁1855	-11.2738
▁Panama	-11.2738
▁skate	-11.2739
dimensional	-11.2741
▁ethic	-11.2744
▁accompany	-11.2753
▁Ernest	-11.2753
▁southeastern	-11.2755
▁fault	-11.2759
▁Room	-11.2763
▁refugees	-11.2774
▁Ambassador	-11.2778
▁obvious	-11.2778
▁conversation	-11.2778
▁Spencer	-11.2778
▁tourism	-11.2778
▁coincid	-11.2778
▁Elliot	-11.2779
▁semifinal	-11.2779
▁1830	-11.278
▁worse	-11.2781
▁Trump	-11.2783
▁Montana	-11.2784
▁Rush	-11.2791
▁Yugoslavia	-11.2791
▁nearest	-11.2798
▁acoustic	-11.2803
▁exhaust	-11.2803
▁relevant	-11.2803
▁motorcycle	-11.2803
▁Amazon	-11.2803
▁Raymond	-11.2804
▁1857	-11.2812
▁Butler	-11.2819
▁Albanian	-11.2819
▁manga	-11.2826
duction	-11.2828
▁facilitate	-11.2828
▁Columbus	-11.2828
▁Simpson	-11.2828
▁Franz	-11.2828
▁negotiations	-11.283
▁Bloom	-11.2831
▁catalog	-11.2834
▁Finance	-11.2835
▁strain	-11.2837
▁Rah	-11.2838
park	-11.2839
▁authoriz	-11.2851
▁followers	-11.2853
▁Beginning	-11.2854
▁nominee	-11.2854
▁Globe	-11.2854
▁radar	-11.2854
▁robot	-11.2855
▁Desert	-11.2855
▁lens	-11.2856
▁crack	-11.2857
▁favourite	-11.2858
speaking	-11.286
▁Southeast	-11.2861
▁elite	-11.2862
▁Northwest	-11.2864
▁burial	-11.2866
▁assignment	-11.2869
▁Malay	-11.2877
▁Renaissance	-11.2879
▁ensemble	-11.2879
▁Machine	-11.2879
▁Vietnamese	-11.288
▁Kaz	-11.2881
▁Morning	-11.289
▁ballet	-11.2893
▁Faculty	-11.2904
▁http	-11.2904
▁sacrifice	-11.2904
▁Raven	-11.2904
▁fiber	-11.2905
▁mythology	-11.2906
▁terrorist	-11.2912
▁Titan	-11.2914
▁Fab	-11.2918
▁Bang	-11.2919
▁Gö	-11.292
▁Filipino	-11.293
▁configuration	-11.293
▁prestigious	-11.293
▁suspension	-11.293
▁Fitz	-11.293
▁sensor	-11.293
pati	-11.2931
▁1859	-11.2939
▁realiz	-11.294
▁Dominican	-11.294
olate	-11.2942
▁announcement	-11.2942
▁Recent	-11.2948
▁explosion	-11.2955
▁Lebanon	-11.2955
▁theatrical	-11.2955
▁cotton	-11.2956
▁Movie	-11.2956
▁grain	-11.2959
▁Delta	-11.297
VA	-11.2979
▁Westminster	-11.2981
▁Otto	-11.2982
▁recommendation	-11.2985
▁700	-11.2995
duced	-11.3001
▁preach	-11.3004
▁Elementary	-11.3007
▁torpedo	-11.3007
▁disturb	-11.3007
▁barrier	-11.3007
▁console	-11.3007
▁annex	-11.3008
▁Wallace	-11.3008
▁trigger	-11.3008
▁classroom	-11.3011
▁bout	-11.3022
▁enforc	-11.3029
▁ordinary	-11.3033
▁Primary	-11.3033
▁Performance	-11.3034
▁riot	-11.3035
▁Mack	-11.3036
▁zoo	-11.3037
▁assess	-11.3041
▁advisor	-11.3042
scope	-11.3047
▁rotation	-11.3048
▁cow	-11.3048
▁Ferdinand	-11.3058
▁Subsequent	-11.3058
▁fantasy	-11.3058
▁inaugurat	-11.3058
▁Future	-11.3061
00,000	-11.3075
▁Vladimir	-11.3084
▁Policy	-11.3084
▁Blanc	-11.3087
▁pap	-11.3087
▁infant	-11.3088
▁friendship	-11.3093
keeper	-11.3094
uki	-11.3095
▁Representative	-11.31
▁Shanghai	-11.311
▁psychological	-11.311
▁quiet	-11.3111
opter	-11.3111
▁Golf	-11.3116
▁Tir	-11.3119
▁1848	-11.3122
borg	-11.3124
▁automat	-11.3126
commissioned	-11.3132
▁efficiency	-11.3136
▁Cameron	-11.3136
▁Joint	-11.3137
▁sharing	-11.3137
▁egg	-11.3137
▁firing	-11.3138
▁1856	-11.3147
▁1,2	-11.3148
▁Maxim	-11.3151
▁Link	-11.3152
▁Sym	-11.3155
▁Rapid	-11.3156
▁Mumbai	-11.3162
▁Official	-11.3162
▁mathematical	-11.3162
▁Liberty	-11.3162
▁Reagan	-11.3163
▁Viking	-11.3176
▁Financial	-11.3189
▁precise	-11.3189
▁cheap	-11.3189
▁array	-11.319
▁Emmy	-11.3191
LL	-11.3192
▁drill	-11.3193
▁Methodist	-11.3193
▁storyline	-11.3208
▁hamlet	-11.3215
▁robb	-11.3215
▁incorporate	-11.3217
▁dictat	-11.3217
▁entertain	-11.3219
▁rapper	-11.3219
▁replica	-11.3235
▁Adventure	-11.3241
▁Intelligence	-11.3241
▁abstract	-11.3241
▁scandal	-11.3241
▁compli	-11.3242
▁Left	-11.3249
▁1854	-11.3251
▁armies	-11.3251
▁Cliff	-11.3259
▁Manager	-11.3268
▁Legend	-11.3271
worm	-11.3275
▁Berkeley	-11.3294
▁consolidat	-11.3294
▁gauge	-11.3294
▁Junction	-11.3296
▁assessment	-11.3298
▁Shore	-11.3301
▁hung	-11.3301
▁seminar	-11.3302
▁1851	-11.3304
▁Danny	-11.3304
▁creator	-11.3312
ñ	-11.3315
▁relay	-11.3317
▁Lucas	-11.332
▁Sparta	-11.332
▁temper	-11.332
▁familiar	-11.3321
▁Private	-11.3321
▁syndrome	-11.3321
▁Constant	-11.3321
▁Khal	-11.3325
▁tire	-11.3327
▁captiv	-11.3329
▁referee	-11.3335
▁Laura	-11.334
▁pub	-11.3346
▁Institution	-11.3347
▁sympath	-11.3347
▁geographical	-11.3347
▁hurt	-11.3349
▁Cuban	-11.3353
▁cease	-11.3369
▁slot	-11.3373
▁Wilhelm	-11.3374
▁mirror	-11.3374
▁Surrey	-11.3374
▁Benedict	-11.3374
▁Kerala	-11.3376
▁criteri	-11.3376
▁Vermont	-11.3377
▁Sudan	-11.338
▁audition	-11.3385
▁rebound	-11.3386
▁psycho	-11.3391
▁subsid	-11.3393
▁Iraqi	-11.3395
▁Liga	-11.3398
▁chest	-11.34
▁Scholar	-11.3401
▁Falcon	-11.3404
grove	-11.3404
▁biology	-11.341
member	-11.3411
ordinat	-11.3413
▁Congo	-11.3418
▁Yellow	-11.3427
▁Plymouth	-11.3427
▁width	-11.3427
▁Fighter	-11.3428
▁Return	-11.3428
product	-11.343
enstein	-11.3453
▁explosive	-11.3454
▁Leicester	-11.3454
▁beaten	-11.3458
▁Revolutionary	-11.3463
▁Dodge	-11.347
▁Contemporary	-11.3481
▁casualties	-11.3481
▁closure	-11.3481
▁harvest	-11.3481
▁occupy	-11.3481
▁amendment	-11.3481
▁bottle	-11.3481
▁Apollo	-11.3481
▁psychology	-11.3481
▁senator	-11.3482
shot	-11.3489
▁bore	-11.3493
▁Secondary	-11.3497
▁Transit	-11.3503
▁Lancashire	-11.3508
▁Uruguay	-11.3508
▁Gothic	-11.3509
▁mosque	-11.3509
▁Isabel	-11.3509
–13	-11.3511
store	-11.3519
▁Haut	-11.353
▁suddenly	-11.353
▁rebellion	-11.3535
▁animation	-11.3536
▁Writer	-11.3536
▁runway	-11.3536
▁insert	-11.3539
▁Grim	-11.354
▁rode	-11.3543
▁Principal	-11.3545
▁Midland	-11.3547
▁Maurice	-11.3562
▁carriage	-11.3562
▁Yankee	-11.3563
▁Oakland	-11.3569
▁transformation	-11.3577
sexual	-11.3582
▁Nashville	-11.359
▁fraud	-11.359
▁Latvia	-11.359
▁enforcement	-11.3591
▁liberat	-11.3596
▁Ellis	-11.3601
▁Holl	-11.3606
▁chip	-11.3606
▁Astro	-11.361
▁aggregate	-11.3617
▁academy	-11.3617
▁referendum	-11.3617
▁Shadow	-11.3617
▁borrow	-11.3617
▁Jerem	-11.3618
wyn	-11.3622
▁profession	-11.3629
▁mature	-11.3634
▁chase	-11.3637
▁Boulevard	-11.3644
▁societies	-11.3644
▁Twenty	-11.3644
▁Belarus	-11.3644
▁decoration	-11.3644
▁Appeal	-11.3645
▁Patriot	-11.3645
▁Oblast	-11.3645
▁torture	-11.3647
▁habit	-11.3652
▁Rice	-11.3652
▁Blake	-11.3653
▁instant	-11.3656
▁Break	-11.3662
▁Batman	-11.3667
▁magnetic	-11.3668
▁Nevertheless	-11.3672
▁temporarily	-11.3672
▁Commerce	-11.3672
▁awareness	-11.3672
▁polar	-11.3678
▁embark	-11.3699
▁explanation	-11.3699
▁sediment	-11.3699
▁Isaac	-11.37
▁shallow	-11.3702
▁rot	-11.3706
▁patch	-11.3709
▁clothes	-11.3714
▁Cave	-11.3718
▁Ecuador	-11.3727
▁aggressive	-11.3727
▁encompass	-11.3727
▁Somerset	-11.3727
▁shark	-11.3727
▁ultra	-11.3728
▁Manila	-11.373
▁northeastern	-11.3731
▁Glenn	-11.3737
gawa	-11.3738
▁filmmaker	-11.3739
shima	-11.3739
generat	-11.3749
lick	-11.375
▁mentor	-11.3752
foot	-11.3754
▁Jacques	-11.3755
▁routine	-11.3755
▁Double	-11.3755
▁interrupt	-11.3755
▁Durham	-11.3767
pool	-11.3771
▁abandon	-11.3774
▁seventeen	-11.3787
▁Universit	-11.3808
▁diamond	-11.381
▁certificate	-11.381
▁Sweet	-11.3811
▁stair	-11.3811
▁fortune	-11.3812
▁warfar	-11.382
▁carve	-11.3825
▁Twin	-11.3835
ledge	-11.3839
week	-11.384
▁whale	-11.3842
mund	-11.3844
▁consultant	-11.3848
▁slavery	-11.3851
▁Election	-11.3859
▁volleyball	-11.3866
▁shrub	-11.3866
▁Laboratory	-11.3867
▁goalkeeper	-11.3867
▁Workers	-11.3869
▁northwestern	-11.3871
▁Triple	-11.3873
▁Transportation	-11.3875
▁1858	-11.3876
written	-11.3884
▁mechanic	-11.3889
▁Prefecture	-11.3894
▁Traditional	-11.3894
▁administrator	-11.3894
▁garrison	-11.3894
▁culminat	-11.3894
▁transaction	-11.3895
▁bulk	-11.3895
▁Esc	-11.3901
▁successive	-11.3901
▁Alpha	-11.3903
▁1853	-11.3905
▁Foster	-11.3905
▁Kumar	-11.3905
▁Consul	-11.3908
▁believ	-11.3912
▁Legion	-11.3914
▁struggl	-11.3918
▁Conservation	-11.3923
▁requiring	-11.3923
▁reopen	-11.3923
hausen	-11.3925
▁Nancy	-11.3935
▁hid	-11.3941
▁Edge	-11.3943
▁Thur	-11.3948
▁doctrine	-11.3951
▁vegetable	-11.3951
▁Solomon	-11.3951
▁Animal	-11.3951
▁manipulat	-11.3951
▁monster	-11.3951
▁decree	-11.3951
▁auction	-11.3952
quality	-11.3952
▁specifi	-11.3956
▁assume	-11.3966
▁swing	-11.3968
school	-11.397
▁redesign	-11.3979
▁Artillery	-11.3979
▁currency	-11.3979
▁revolt	-11.3979
▁counterpart	-11.3981
▁1852	-11.3989
▁crush	-11.3992
▁Prison	-11.3998
speed	-11.4002
▁hometown	-11.4002
▁Literature	-11.4008
▁Wednesday	-11.4008
▁Friedrich	-11.4008
▁Indianapolis	-11.4008
▁Ahmad	-11.4008
▁Stoke	-11.4026
▁accidental	-11.4026
▁Shri	-11.4031
▁applie	-11.4032
▁marsh	-11.4036
▁fulfill	-11.4036
▁intermediate	-11.4036
▁reorganiz	-11.4036
▁Peak	-11.4039
▁immigration	-11.404
▁resource	-11.4041
▁tap	-11.4045
–11	-11.4053
▁Bonn	-11.4055
▁employee	-11.4064
▁algebra	-11.4065
▁membrane	-11.4065
▁protagonist	-11.4065
▁voyage	-11.4065
▁streak	-11.4065
▁disrupt	-11.4065
▁nerve	-11.4067
▁Franc	-11.4068
▁boost	-11.407
▁Taka	-11.407
▁Pick	-11.4072
▁Flying	-11.4074
▁eventual	-11.4075
▁Lisa	-11.4076
▁Agriculture	-11.4093
▁matrix	-11.4093
▁Nicola	-11.4094
▁valve	-11.4095
trans	-11.4105
founder	-11.4115
▁Marcel	-11.4118
▁Santiago	-11.4122
▁ministry	-11.4122
▁Female	-11.4122
▁rub	-11.4126
▁Edition	-11.4126
▁hub	-11.4126
eater	-11.4137
▁dispos	-11.4149
▁Copenhagen	-11.4151
▁diocese	-11.4151
▁Amendment	-11.4151
▁Sussex	-11.4151
▁Olympia	-11.4151
▁spider	-11.4151
▁proclaim	-11.4153
▁ancestry	-11.418
▁elaborate	-11.418
▁exterior	-11.418
▁impressive	-11.418
▁treasure	-11.418
▁armour	-11.4183
▁pink	-11.4187
▁Haiti	-11.419
▁VII	-11.4191
▁complicat	-11.4198
▁complement	-11.4209
▁statistical	-11.4209
▁hectare	-11.4209
▁shrine	-11.4209
▁defect	-11.421
▁Mix	-11.4211
▁Curtis	-11.4211
▁André	-11.4211
NI	-11.4223
▁pav	-11.4224
▁revival	-11.4229
▁stereo	-11.4229
▁bush	-11.4236
▁Volunteer	-11.4238
▁autumn	-11.4238
▁molecular	-11.4238
▁striking	-11.4238
▁NASA	-11.4238
▁Hindi	-11.4238
▁smart	-11.4238
jur	-11.4239
▁Darwin	-11.424
▁Emma	-11.4247
▁Large	-11.4262
▁Architect	-11.4266
▁Canterbury	-11.4267
▁halt	-11.4272
▁dys	-11.4291
▁Nadu	-11.4291
▁0.5	-11.4295
▁manifest	-11.4296
▁privilege	-11.4296
▁quantum	-11.4296
▁horizontal	-11.4296
▁peninsula	-11.4296
▁convoy	-11.4296
▁advertisement	-11.4299
▁Spider	-11.4302
▁volcano	-11.4304
utstanding	-11.4308
▁Without	-11.4312
▁measur	-11.4324
▁Talk	-11.4325
▁Cabinet	-11.4326
▁Chapter	-11.4326
▁feather	-11.4326
▁automobile	-11.4326
▁implie	-11.4328
▁lessons	-11.4329
▁plum	-11.4331
▁2–1	-11.4331
▁Clement	-11.4339
▁commentator	-11.434
songwriter	-11.4349
▁Basil	-11.4349
▁Brussels	-11.4355
▁Giovanni	-11.4355
▁Krishna	-11.4355
▁Honour	-11.4355
▁chorus	-11.4355
▁navy	-11.4357
▁Doug	-11.4357
▁Aaron	-11.4357
▁Somali	-11.4358
▁mild	-11.4361
▁sculptor	-11.4362
south	-11.4366
▁brew	-11.437
▁criticis	-11.4374
▁HMS	-11.4377
▁Edmund	-11.4385
▁literac	-11.4386
▁Nikola	-11.4386
▁Geneva	-11.4389
▁shipping	-11.4391
credit	-11.4395
▁Potter	-11.4411
▁assassination	-11.4414
▁goddess	-11.4414
▁cannon	-11.4417
cellular	-11.4421
▁theorem	-11.4423
▁Denis	-11.4434
▁Morocco	-11.4444
▁impression	-11.4444
▁rainfall	-11.4445
▁Past	-11.4447
▁Champ	-11.4448
▁separation	-11.4451
▁Serie	-11.4452
▁scout	-11.4455
camp	-11.4458
writing	-11.4469
▁Expedition	-11.4473
▁stolen	-11.4473
▁Gibson	-11.4474
▁Bennett	-11.4474
▁Tasmania	-11.4474
▁Ahmed	-11.4474
▁conceiv	-11.4474
▁Circ	-11.4478
▁complain	-11.4479
▁hook	-11.4481
walk	-11.4483
▁vital	-11.4484
▁instructor	-11.4489
▁revenge	-11.4503
▁Speaker	-11.4503
▁Mik	-11.4503
▁Cornwall	-11.4504
▁tribal	-11.4507
▁duration	-11.4507
▁Shiva	-11.451
▁requirement	-11.4531
▁secular	-11.4533
▁Previous	-11.4533
▁Cardiff	-11.4533
▁theoretical	-11.4533
▁cheese	-11.4533
▁Writing	-11.4533
▁Bolivia	-11.4533
▁subtropic	-11.4534
▁emotion	-11.4535
▁jewel	-11.4535
▁Faith	-11.4539
▁mansion	-11.4542
chief	-11.4546
titled	-11.4552
control	-11.4561
izz	-11.4562
▁Martha	-11.4562
▁bicycle	-11.4563
releasing	-11.4563
claim	-11.4564
▁Actress	-11.4565
▁contend	-11.4567
▁melt	-11.4568
▁editorial	-11.4571
▁Panther	-11.4572
screen	-11.4577
ucci	-11.4581
▁Watch	-11.4585
▁Nottingham	-11.4593
▁terrain	-11.4593
▁skull	-11.4593
▁mortal	-11.4594
▁cream	-11.4594
▁bold	-11.4594
▁Editor	-11.4595
▁regulator	-11.4597
▁grid	-11.4597
▁survivors	-11.4607
▁Environmental	-11.4611
▁Chronicle	-11.4624
▁Fernando	-11.4624
▁overlook	-11.4624
▁Thursday	-11.4624
▁Cecil	-11.4624
▁invention	-11.4626
▁cliff	-11.4627
▁hydr	-11.4643
▁handling	-11.4651
third	-11.4653
▁territorial	-11.4654
▁democratic	-11.4654
▁discrimination	-11.4658
▁bread	-11.4658
▁Contest	-11.4659
▁consume	-11.466
▁digit	-11.466
▁Armenia	-11.4664
national	-11.4665
▁reliev	-11.4665
▁pace	-11.4683
▁curriculum	-11.4684
▁elephant	-11.4684
▁phenomenon	-11.4684
▁siblings	-11.4684
▁thorough	-11.4684
▁vowel	-11.4685
▁Shak	-11.4685
▁conviction	-11.4695
▁Oslo	-11.4696
▁1849	-11.4696
▁footage	-11.4698
▁bike	-11.4707
▁kitchen	-11.4715
▁Gustav	-11.4715
▁subspeci	-11.4716
▁clash	-11.4724
▁revolutionar	-11.4735
▁Wool	-11.4737
▁remarkabl	-11.4742
built	-11.4745
▁apprentice	-11.4745
▁ammunition	-11.4745
▁consecrat	-11.4745
▁Lutheran	-11.4745
▁Testament	-11.4745
▁ordain	-11.4746
▁Continental	-11.4749
▁emission	-11.475
▁Chuck	-11.4757
▁Basin	-11.4757
▁Elect	-11.4758
▁illustration	-11.4759
▁Harper	-11.4763
electric	-11.4774
▁Kashmir	-11.4776
▁mysterious	-11.4776
▁ghost	-11.4776
▁Valentin	-11.4778
Alpes	-11.4782
▁Mull	-11.4797
▁linguistic	-11.4807
▁Cambodia	-11.4807
▁dispers	-11.4808
▁screenplay	-11.4809
▁consent	-11.4809
▁Foot	-11.4815
▁Hammer	-11.482
▁Sacr	-11.4825
▁leak	-11.4827
buck	-11.4828
▁rotat	-11.4833
▁Frankfurt	-11.4838
▁Suffolk	-11.4838
▁dinosaur	-11.4838
▁spectrum	-11.4838
▁altar	-11.4844
▁View	-11.4855
▁steppe	-11.4858
▁Look	-11.4868
▁furniture	-11.4869
▁impressed	-11.4869
▁neighbourhood	-11.4869
llusion	-11.4873
scape	-11.4876
▁Mongolia	-11.4877
▁1841	-11.4882
psych	-11.4885
▁Marcus	-11.4896
writer	-11.4896
▁Ellen	-11.4896
▁Presbyterian	-11.49
▁AIDS	-11.49
▁enlarg	-11.49
▁Quarter	-11.49
▁Uganda	-11.49
▁Locat	-11.4901
▁Tampa	-11.4905
▁Perform	-11.4906
▁Pink	-11.4908
▁pursuit	-11.4908
▁clinic	-11.4919
▁clip	-11.4929
▁welfare	-11.4931
▁Crystal	-11.4931
▁modification	-11.4931
▁Calgary	-11.4931
▁massacre	-11.4931
▁USSR	-11.4934
▁Arctic	-11.4937
▁Yoshi	-11.4939
▁dragon	-11.4942
▁McDonald	-11.4962
▁Revival	-11.4962
▁dinner	-11.4962
▁Universe	-11.4963
▁atomic	-11.4967
▁Caroline	-11.4968
▁irre	-11.4975
generation	-11.4976
present	-11.4986
▁derivative	-11.4993
▁nineteenth	-11.4993
▁powder	-11.4993
▁Brunswick	-11.4993
▁Rachel	-11.4994
▁Scotia	-11.4994
ør	-11.5001
▁Albania	-11.5005
▁complication	-11.5008
▁1847	-11.5012
▁Planet	-11.5015
▁cruiser	-11.5019
▁irregular	-11.5025
▁protocol	-11.5025
▁peasant	-11.5025
▁presid	-11.5028
▁exploration	-11.5037
▁bassist	-11.5043
▁Josh	-11.5053
▁Luxembourg	-11.5056
▁Salvador	-11.5056
▁reconstruction	-11.5056
▁McKe	-11.5061
Connor	-11.5062
▁ferry	-11.5066
▁unclear	-11.5069
▁artifact	-11.5088
▁diversity	-11.5088
▁Ghost	-11.5088
▁endanger	-11.5088
▁Flower	-11.5088
▁stability	-11.5089
asso	-11.509
▁ramp	-11.5095
▁integration	-11.5105
▁introduc	-11.5113
▁Ballet	-11.5117
▁Milwaukee	-11.512
▁guidance	-11.512
▁ingredient	-11.512
▁statistics	-11.512
▁Miguel	-11.512
▁encode	-11.5121
▁stall	-11.5121
▁minimal	-11.5122
▁uncertain	-11.5122
▁offense	-11.5126
▁Often	-11.5127
▁sprint	-11.5129
▁Serv	-11.5137
▁Grave	-11.5144
▁gray	-11.5144
▁resembl	-11.5146
▁Julia	-11.5148
▁Zimbabwe	-11.5152
▁Edmonton	-11.5152
▁ceiling	-11.5152
▁Depression	-11.5152
▁choreograph	-11.5152
▁syndicat	-11.5152
▁absent	-11.5152
▁Lodge	-11.5152
▁blend	-11.5152
▁IBM	-11.5152
▁Herald	-11.5154
▁Annual	-11.5155
franc	-11.5159
▁renovat	-11.5162
▁hitting	-11.5168
▁decreas	-11.5175
activat	-11.5182
▁Aboriginal	-11.5184
▁NATO	-11.5184
▁democracy	-11.5184
▁dubbed	-11.5184
▁girlfriend	-11.5184
▁engrav	-11.5184
▁Holmes	-11.5184
▁Bedford	-11.5185
▁dying	-11.5188
▁Heights	-11.519
▁refine	-11.5194
▁Chancellor	-11.5216
▁Provincial	-11.5216
▁galax	-11.5216
▁villain	-11.5216
▁Gospel	-11.5216
▁Aisne	-11.5216
▁Heaven	-11.5217
▁identifi	-11.5223
▁circulation	-11.5224
▁optical	-11.5231
▁honorar	-11.5235
▁ballad	-11.5242
▁archaeolog	-11.5243
▁tornado	-11.5248
▁Eugene	-11.5248
▁ornament	-11.5248
▁Stefan	-11.5249
▁vein	-11.5251
▁joke	-11.5254
prote	-11.5257
▁interval	-11.5259
▁Facebook	-11.528
▁surgeon	-11.528
▁HIV	-11.528
▁codice	-11.528
▁compact	-11.528
diction	-11.5282
founded	-11.5283
▁systematic	-11.5285
▁1846	-11.5295
▁doctorate	-11.5301
▁Calva	-11.5309
▁epic	-11.5312
▁allegations	-11.5312
▁unanimous	-11.5312
▁harsh	-11.5313
▁dorm	-11.5339
▁unemploy	-11.5345
▁memoir	-11.5345
▁shaft	-11.5345
▁entity	-11.5347
▁Folk	-11.5349
▁rational	-11.535
▁aerial	-11.535
▁navigation	-11.535
onym	-11.5373
▁sacred	-11.5378
▁distant	-11.5378
▁Comedy	-11.538
▁layout	-11.5381
▁VIII	-11.5384
▁commentary	-11.5388
▁laugh	-11.539
▁Border	-11.5392
connect	-11.5403
▁chess	-11.5406
▁punish	-11.5406
▁Manitoba	-11.541
▁turbine	-11.541
▁wreck	-11.541
▁presidency	-11.5411
▁Naples	-11.5411
▁Windsor	-11.5411
▁sitcom	-11.5412
▁showcase	-11.5412
▁trustee	-11.5415
▁conquest	-11.5415
▁rope	-11.542
▁Citizen	-11.5443
▁Competition	-11.5443
▁tobacco	-11.5443
▁clergy	-11.5443
▁devastat	-11.5443
▁Orlando	-11.5443
▁twist	-11.5443
▁Seoul	-11.5443
▁plural	-11.5444
plicat	-11.5445
number	-11.5447
▁textile	-11.5452
▁hull	-11.5455
▁Memphis	-11.5476
▁conjunction	-11.5476
▁gastropod	-11.5476
▁Ultimate	-11.5509
▁foster	-11.5509
critic	-11.5528
▁bankruptcy	-11.5542
▁Chelsea	-11.5542
▁Tropical	-11.5542
▁thriller	-11.5542
▁romance	-11.5542
▁retriev	-11.5542
▁copyright	-11.5543
▁salary	-11.5551
▁cruise	-11.5565
▁boom	-11.557
▁orientation	-11.5575
▁clerk	-11.5576
▁analyz	-11.5576
▁kiss	-11.5579
clusive	-11.5607
▁Armstrong	-11.5609
▁compromis	-11.5609
▁libraries	-11.5609
▁homosexual	-11.5609
▁Adrian	-11.561
▁journalism	-11.5618
▁incorporat	-11.5632
symmetric	-11.5642
▁Saskatchewan	-11.5642
▁vegetation	-11.5642
▁creek	-11.5642
▁entries	-11.5642
▁laser	-11.5643
▁Credit	-11.5643
▁admission	-11.5643
methyl	-11.5647
establish	-11.5648
▁preference	-11.5649
,200	-11.565
▁hatch	-11.5672
pala	-11.5674
▁Kingston	-11.5675
▁Academic	-11.5676
▁authentic	-11.5676
▁deployment	-11.5676
▁Complex	-11.5676
▁testimon	-11.5676
▁blade	-11.5676
▁denote	-11.5678
▁dioxide	-11.568
▁Loire	-11.5689
▁Relations	-11.5697
▁Guatemala	-11.5709
▁confidence	-11.5709
▁Interior	-11.5709
▁Betty	-11.571
▁crucial	-11.571
▁swimmer	-11.571
▁wingspan	-11.5711
▁tumor	-11.5713
▁biography	-11.5713
▁peaceful	-11.5715
▁Trent	-11.5717
▁thermal	-11.5718
▁Environment	-11.5723
hroughout	-11.5734
▁Scientific	-11.5743
▁Sebastian	-11.5743
▁aesthetic	-11.5743
▁necessari	-11.5743
▁lobby	-11.5743
▁Zhang	-11.5743
▁crater	-11.5745
▁naming	-11.5749
▁Jesse	-11.5757
▁conserv	-11.577
eiro	-11.5777
▁Istanbul	-11.5777
▁judicial	-11.5777
▁custod	-11.5777
▁Wagner	-11.5777
▁cyclone	-11.5777
▁FBI	-11.5777
▁Colony	-11.5777
▁humid	-11.5778
▁finite	-11.578
militar	-11.578
▁expir	-11.5784
▁volcanic	-11.5811
▁Alternative	-11.5811
▁anticipat	-11.5811
compatible	-11.5811
▁identification	-11.5811
▁Cairo	-11.5812
commerc	-11.5829
▁Buddhism	-11.5845
▁harbour	-11.5845
▁judgment	-11.5845
▁magnitude	-11.5845
▁vicinity	-11.5845
▁Twitter	-11.5845
▁Mobile	-11.5845
▁grape	-11.5846
produced	-11.5846
▁freestyle	-11.5849
▁councillor	-11.5849
▁Worcester	-11.5879
▁feminist	-11.5879
▁geometry	-11.5879
▁limestone	-11.5879
▁unveil	-11.5879
▁trunk	-11.5879
▁Teacher	-11.588
▁sodium	-11.588
▁tiny	-11.5884
▁Pip	-11.5905
▁Cyprus	-11.5914
▁Kenneth	-11.5914
▁Screen	-11.5914
gotten	-11.5914
▁Bailey	-11.5914
▁disabled	-11.5914
▁Progressive	-11.5916
▁Alexandria	-11.5924
▁Blair	-11.5926
▁playwright	-11.5948
bourne	-11.5951
▁honey	-11.5955
▁nitr	-11.5966
Brien	-11.5968
▁Slovakia	-11.5971
▁overwhelm	-11.5983
▁ESPN	-11.5983
▁Jesuit	-11.5983
▁Course	-11.5983
▁Caesar	-11.5984
▁magnet	-11.5989
▁Edgar	-11.5991
▁sociolog	-11.5996
collegiate	-11.6017
▁capabilities	-11.6017
▁deliberate	-11.6017
▁necessit	-11.6017
▁pocket	-11.6018
aternity	-11.6018
▁revers	-11.602
▁Capitol	-11.6052
▁Adolf	-11.6052
▁Mercury	-11.6052
▁grammar	-11.6052
▁rejoin	-11.6052
▁drunk	-11.6053
▁Thames	-11.6053
▁punch	-11.6053
▁dropping	-11.6054
▁rubber	-11.6055
▁Fuji	-11.6059
district	-11.6063
osaurus	-11.6071
▁Statistical	-11.6087
▁Theodore	-11.6088
▁confusion	-11.609
▁María	-11.6092
▁Brewer	-11.6092
▁sudden	-11.6094
▁legac	-11.612
▁purple	-11.6122
▁ibn	-11.6125
prefecture	-11.6158
▁Episcopal	-11.6158
▁Physics	-11.6158
▁registration	-11.6158
▁twentieth	-11.6158
▁Tuesday	-11.6158
▁Brighton	-11.6158
▁vinyl	-11.6158
▁diving	-11.6158
▁Gerald	-11.6158
▁Usual	-11.6162
▁lifestyle	-11.6164
▁Harbour	-11.6165
▁instruct	-11.6178
▁subfamily	-11.6193
▁Treasure	-11.6193
▁Wyoming	-11.6193
▁trademark	-11.6196
▁marble	-11.6196
▁Tyler	-11.6199
▁spark	-11.6199
▁loud	-11.6203
ovsky	-11.6221
▁Legislature	-11.6228
▁preliminary	-11.6228
▁synthesis	-11.6228
▁puzzle	-11.6228
▁garage	-11.6229
▁Linux	-11.6231
▁Leslie	-11.6232
government	-11.6241
▁circulat	-11.6254
▁Gloucester	-11.6264
▁denomination	-11.6264
▁dispatch	-11.6264
▁generator	-11.6266
▁summon	-11.6267
▁Rang	-11.6274
▁flame	-11.6274
wheel	-11.6277
▁consul	-11.6279
▁cloth	-11.6291
▁Statistics	-11.63
▁delegation	-11.63
▁Agreement	-11.63
▁pilgrim	-11.63
▁surpass	-11.63
▁Albany	-11.63
▁Stafford	-11.63
▁evident	-11.63
▁Strong	-11.63
▁Uttar	-11.63
▁trophy	-11.6302
▁Duncan	-11.6304
▁lunch	-11.6304
▁Weather	-11.6305
▁Bradford	-11.6305
white	-11.6313
▁Czechoslovakia	-11.6328
▁Jennifer	-11.6336
▁flourish	-11.6336
▁psychiatri	-11.6336
▁Cavalry	-11.6336
▁brutal	-11.6336
▁posthumous	-11.6336
▁Monument	-11.6336
▁Carroll	-11.6339
▁Springfield	-11.6342
▁blast	-11.6342
science	-11.6351
▁conspiracy	-11.6371
▁educator	-11.6371
▁grandmother	-11.6371
▁hierarch	-11.6371
▁licence	-11.6372
▁Canyon	-11.6372
▁pregnancy	-11.6373
▁Popular	-11.6373
▁Normal	-11.6377
▁Preston	-11.6379
▁sweep	-11.6408
▁Malcolm	-11.6408
▁Portsmouth	-11.6408
▁abortion	-11.6408
▁Fifth	-11.6408
▁uprising	-11.6408
▁lodge	-11.6409
▁tongue	-11.641
▁Fraser	-11.641
▁appoint	-11.6429
▁subdivision	-11.6444
Picardie	-11.6444
▁airplane	-11.6448
▁polymer	-11.6449
▁astronomer	-11.648
▁unexpected	-11.648
▁Baldwin	-11.648
▁bureau	-11.648
▁pistol	-11.648
▁stint	-11.648
▁Davies	-11.648
▁Present	-11.6482
▁citizenship	-11.6483
▁Negro	-11.6483
font	-11.6507
▁LGBT	-11.6517
▁Sanskrit	-11.6517
▁probability	-11.6517
▁Shield	-11.6517
▁garner	-11.6517
▁penetrat	-11.6517
▁perception	-11.6522
▁Calvin	-11.6522
drome	-11.6526
▁Featur	-11.6543
▁Investigat	-11.6553
▁Ludwig	-11.6553
▁Reynolds	-11.6553
▁accommodation	-11.6553
▁autobiography	-11.6553
▁Tanzania	-11.6553
▁mutation	-11.6553
vulnerable	-11.659
▁unofficial	-11.659
▁comfortabl	-11.659
▁batterie	-11.6591
▁Forbes	-11.6594
▁gentle	-11.6596
induc	-11.6602
▁adequate	-11.6627
▁mathematician	-11.6627
▁vertebra	-11.6627
▁Episode	-11.6627
▁censor	-11.6627
▁consensu	-11.6627
▁wagon	-11.6627
▁embrac	-11.6627
▁Beatles	-11.6631
▁Cornell	-11.6634
dynamic	-11.6646
▁correlat	-11.6653
▁UNESCO	-11.6664
▁Safety	-11.6664
▁sanction	-11.6664
▁voltage	-11.6664
▁RBI	-11.6664
▁colonel	-11.6664
▁facade	-11.6664
▁breach	-11.6664
▁chord	-11.6665
evich	-11.6681
▁portfolio	-11.6701
solving	-11.6701
▁decay	-11.6702
▁pirate	-11.6707
,800	-11.6714
Donnell	-11.6738
▁remnant	-11.6739
▁Sheriff	-11.6739
▁Qatar	-11.6739
▁Girond	-11.674
▁Architecture	-11.674
▁stomach	-11.6776
▁shadow	-11.6776
▁chicken	-11.6776
▁remake	-11.6776
▁Strike	-11.6785
▁kids	-11.6796
▁Winston	-11.6803
▁Author	-11.6809
▁Distinguish	-11.6814
▁hypothesis	-11.6814
▁intelligent	-11.6814
▁Releas	-11.6815
▁Chrys	-11.6817
▁remind	-11.6817
▁capability	-11.6818
▁execut	-11.6825
▁surf	-11.6848
▁Account	-11.6851
▁Exhibition	-11.6851
▁statute	-11.6851
▁triangle	-11.6851
▁Gandhi	-11.6851
▁plaque	-11.6851
▁Source	-11.6851
▁Knox	-11.6851
▁convey	-11.6852
▁Xbox	-11.6855
▁vault	-11.6857
▁repris	-11.6861
▁addict	-11.6861
▁racis	-11.6874
▁Carnegie	-11.6889
▁Category	-11.6889
▁Winnipeg	-11.6889
▁département	-11.6889
▁Hopkins	-11.6889
▁utility	-11.6889
▁Monroe	-11.6889
▁accordance	-11.6891
▁oxidation	-11.6927
▁Liberation	-11.6927
▁intensity	-11.6927
▁Belgrade	-11.6927
▁Index	-11.693
▁spacecraft	-11.6931
▁deteriorat	-11.6965
▁expell	-11.6965
▁drown	-11.6966
▁screenwriter	-11.6966
▁aftermath	-11.6966
▁sponsorship	-11.6968
▁Cloud	-11.697
▁achiev	-11.6995
▁memories	-11.7004
▁collision	-11.7004
▁enormous	-11.7004
▁Colonial	-11.7004
▁wheat	-11.7004
▁cyclist	-11.7004
▁melodi	-11.7004
▁qualit	-11.7011
▁Own	-11.7012
▁practic	-11.7032
▁rectangular	-11.7042
▁Lancaster	-11.7042
▁NASCAR	-11.7042
▁obscur	-11.7042
cultural	-11.7064
▁Scandinavia	-11.7081
▁Trinidad	-11.7081
▁Belfast	-11.7081
▁innovative	-11.7081
▁Arsenal	-11.7081
▁Rifle	-11.7081
▁Eurovision	-11.7082
▁tendenc	-11.7094
7.5	-11.7095
▁circum	-11.7119
▁luxury	-11.7119
▁philosophical	-11.7119
▁Rochester	-11.712
▁eagle	-11.712
▁Edwin	-11.7122
▁Mongol	-11.7149
▁Maharashtra	-11.7158
▁Wikipedia	-11.7158
▁cognitive	-11.7158
▁velocity	-11.7158
▁Southampton	-11.7158
▁Hampton	-11.7158
▁irrigat	-11.7158
▁asteroid	-11.7159
▁revolve	-11.716
▁slide	-11.7165
▁adhere	-11.717
graduate	-11.7174
▁Siege	-11.7175
▁Newfoundland	-11.7197
▁Bohemia	-11.7198
▁divine	-11.7199
▁Sikh	-11.7208
▁Griffith	-11.7237
▁iTunes	-11.7237
▁mollusk	-11.7237
▁Henderson	-11.7237
▁anonymous	-11.7237
▁gravity	-11.7237
▁Gujarat	-11.7237
▁Bronze	-11.7237
▁Happy	-11.7237
▁trapped	-11.7238
▁thread	-11.7238
▁Aberdeen	-11.7276
▁synthesiz	-11.7276
▁swamp	-11.7276
▁clause	-11.7276
▁Tunisia	-11.7276
▁Saturn	-11.7276
▁Underground	-11.7278
▁leather	-11.7279
wolf	-11.7285
▁hik	-11.7295
▁intersect	-11.7304
▁Budapest	-11.7316
▁Commercial	-11.7316
▁Herzegovina	-11.7316
▁Karnataka	-11.7316
▁Leipzig	-11.7316
▁maternal	-11.7316
▁stuff	-11.7316
▁Claudi	-11.7319
▁legendar	-11.7338
record	-11.7344
▁Holocaust	-11.7355
▁ceremonies	-11.7355
▁rehabilitat	-11.7355
▁vacant	-11.7355
▁explode	-11.7355
▁Archaeolog	-11.7356
▁Klein	-11.7359
▁Helm	-11.7373
▁imitat	-11.7392
▁nervous	-11.7395
▁reluctant	-11.7395
▁Julius	-11.7395
▁Sicily	-11.7395
▁Superior	-11.7395
▁antenna	-11.7396
▁pseudo	-11.7435
▁Crawford	-11.7435
▁motif	-11.7435
▁enacted	-11.7435
▁Study	-11.7435
▁Normandy	-11.7435
▁freshwater	-11.7437
▁Animat	-11.747
▁Visit	-11.747
▁celebrity	-11.7475
▁consequent	-11.7475
▁prominence	-11.7475
▁rookie	-11.7475
▁Dubai	-11.7475
▁Gaelic	-11.7475
▁Title	-11.7477
▁ascend	-11.7478
▁pension	-11.7479
▁Angola	-11.748
▁Access	-11.7501
▁Heavyweight	-11.7516
▁medication	-11.7516
▁congressional	-11.7516
▁Coalition	-11.7516
▁certification	-11.7517
▁evolv	-11.7517
▁percussion	-11.7556
▁Fantasy	-11.7556
▁Paraguay	-11.7556
▁virtue	-11.7556
physiolog	-11.7557
partisan	-11.7584
▁Individual	-11.7597
▁sentiment	-11.7597
▁spear	-11.7597
▁pretend	-11.7598
▁Style	-11.7611
▁Slovak	-11.7611
▁Minneapolis	-11.7638
▁cuisine	-11.7638
▁Graduate	-11.7638
▁preceding	-11.7638
▁mystery	-11.7638
▁Janeiro	-11.7638
▁Tennis	-11.7638
▁Felix	-11.7639
▁steady	-11.7639
▁curv	-11.7642
▁Clinic	-11.7653
children	-11.7666
▁Helsinki	-11.7679
▁Seminary	-11.7679
▁flavor	-11.7679
▁innocent	-11.7679
▁Crusade	-11.7679
▁pollution	-11.7679
▁Vijay	-11.768
▁Wesley	-11.7681
▁separat	-11.7687
ukh	-11.7688
defunct	-11.7719
disciplinary	-11.772
▁lesbian	-11.772
▁Dorothy	-11.772
▁triumph	-11.772
▁Deutsche	-11.772
▁abolition	-11.772
▁Flanders	-11.772
▁dwelling	-11.772
▁synonym	-11.772
2,1	-11.7745
▁Philosophy	-11.7761
▁Software	-11.7761
▁recurring	-11.7761
▁Summit	-11.7761
▁spawn	-11.7761
▁integer	-11.7762
▁Bombay	-11.7763
llocated	-11.7763
▁summari	-11.7796
▁Lombard	-11.7802
▁assumption	-11.7802
▁Learning	-11.7803
▁infinite	-11.7803
▁spotted	-11.7804
function	-11.7833
▁Halifax	-11.7844
▁accumulate	-11.7844
▁ceramic	-11.7844
▁Siberia	-11.7846
▁accent	-11.7846
sław	-11.7846
▁swim	-11.7884
▁Afghan	-11.7886
▁Chemistry	-11.7886
▁celebrities	-11.7886
▁congress	-11.7886
▁scenario	-11.7886
▁Nichols	-11.7886
▁peripher	-11.7886
▁spectator	-11.7886
▁Heinrich	-11.7886
▁Tunnel	-11.7886
▁Patricia	-11.7886
▁turbo	-11.7887
▁overcome	-11.7887
terrorism	-11.7888
stroke	-11.7919
▁embryo	-11.7921
recogniz	-11.7925
▁Congregation	-11.7928
▁Headquarters	-11.7928
▁Kazakhstan	-11.7928
▁granite	-11.7928
▁fraction	-11.7928
responsibilities	-11.7937
▁subscrib	-11.7964
▁Unfortunate	-11.797
▁Agricultural	-11.797
▁extraordinar	-11.797
▁quantities	-11.797
▁reconnaissance	-11.797
▁technological	-11.797
▁blank	-11.797
▁MLB	-11.797
▁Ernst	-11.797
▁Diploma	-11.797
▁Saxony	-11.7971
▁cyto	-11.7971
▁fortification	-11.7971
▁incorrect	-11.8013
▁legitimate	-11.8013
▁practitioner	-11.8013
▁propaganda	-11.8013
▁trauma	-11.8013
▁Buddha	-11.8013
▁Concord	-11.8013
▁Population	-11.8014
▁rumor	-11.8015
▁pledg	-11.8033
Ireland	-11.8046
dissolved	-11.8046
developed	-11.8046
▁Confederation	-11.8055
▁calculation	-11.8055
▁economist	-11.8055
▁fixture	-11.8055
▁Valencia	-11.8055
cliffe	-11.8055
▁harbor	-11.8055
uditorium	-11.8055
▁Typical	-11.8055
▁Griffin	-11.8056
▁corridor	-11.8098
▁Raiders	-11.8098
▁pretty	-11.8098
▁Scots	-11.8098
▁Built	-11.8099
▁converg	-11.81
▁waiv	-11.8115
▁trumpet	-11.8141
▁ecosystem	-11.8141
▁Jupiter	-11.8141
▁hazard	-11.8141
▁analyst	-11.8141
▁inspection	-11.8141
▁Custom	-11.8141
escence	-11.8151
▁fake	-11.8156
▁maxim	-11.8181
▁refurbish	-11.8184
▁Criminal	-11.8184
▁amphibi	-11.8184
▁spiral	-11.8184
▁gambl	-11.8185
girl	-11.8225
▁Lebanese	-11.8227
▁Nacional	-11.8227
▁Wimbledon	-11.8227
▁availability	-11.8227
▁boyfriend	-11.8227
▁decisive	-11.8227
▁neglect	-11.8227
▁proximity	-11.8227
▁Baroque	-11.8227
▁plague	-11.8227
▁cardinal	-11.8227
▁Soldier	-11.8227
▁betray	-11.8229
▁audit	-11.8236
famous	-11.8263
▁Mathematics	-11.8271
▁Providence	-11.8271
▁Cologne	-11.8271
▁Telugu	-11.8271
▁prevail	-11.8271
▁Grammar	-11.8271
▁genome	-11.8271
▁reissu	-11.8271
▁Speedway	-11.8271
▁replied	-11.8271
▁multipli	-11.8299
League	-11.8307
▁Beyond	-11.8314
▁consciousness	-11.8314
▁gymnast	-11.8314
▁quantity	-11.8314
▁Swift	-11.8314
▁chloride	-11.8314
▁pleasure	-11.8314
▁wool	-11.8315
▁Generation	-11.8316
▁stack	-11.8316
dhya	-11.8318
▁Hydro	-11.8322
▁advanc	-11.835
▁Constantinople	-11.8358
▁chromosome	-11.8358
▁pyramid	-11.8358
▁sulfur	-11.8358
▁accurac	-11.8358
▁melody	-11.8358
▁Mozart	-11.8358
▁nitrogen	-11.8359
▁anthem	-11.8362
▁advertise	-11.8398
▁Cameroon	-11.8402
▁Discovery	-11.8402
▁Consequent	-11.8402
▁honest	-11.8403
▁Joshua	-11.8403
▁Telegraph	-11.8404
▁Leopold	-11.8446
▁strategies	-11.8446
▁Document	-11.8447
▁Judaism	-11.8447
▁cartridge	-11.8447
▁fiscal	-11.8447
▁cottage	-11.8447
▁Cotton	-11.8447
▁McKi	-11.8458
▁chocolate	-11.8491
▁glacier	-11.8491
▁puppet	-11.8491
▁satisfi	-11.8491
▁alumni	-11.8491
▁Lisbon	-11.8492
▁Catalan	-11.8492
▁Guitar	-11.8492
▁constellation	-11.8536
▁constituent	-11.8536
▁genuine	-11.8536
▁juvenile	-11.8536
▁migrant	-11.8536
▁surprising	-11.8536
▁Madonna	-11.8536
▁Insurance	-11.8536
▁mortar	-11.8536
▁Kuwait	-11.8536
▁overthrow	-11.8536
▁Pirates	-11.8536
▁Yugoslav	-11.8556
wrote	-11.8576
▁brilliant	-11.858
▁slogan	-11.858
▁Nixon	-11.8581
▁Jessica	-11.8581
▁warehouse	-11.8581
▁Vernon	-11.8581
▁analytic	-11.8581
▁Lambert	-11.8586
Normandie	-11.8588
▁recommend	-11.8589
▁Cyril	-11.8594
Neill	-11.8614
▁Manufactur	-11.8625
▁Bermuda	-11.8625
▁Industries	-11.8625
▁Montenegro	-11.8625
▁primitive	-11.8625
▁segregat	-11.8625
▁globe	-11.8626
▁consonant	-11.8626
▁auxiliar	-11.8671
▁Marathon	-11.8671
▁Vatican	-11.8671
▁Twelve	-11.8671
▁Volume	-11.8671
▁telescope	-11.8671
▁forbidd	-11.8673
▁corrupt	-11.8707
▁Treasury	-11.8716
▁hormone	-11.8716
▁mascot	-11.8716
▁syllable	-11.8716
▁Sergeant	-11.8716
▁Tribune	-11.8716
▁contradict	-11.8716
▁civic	-11.8716
▁Mercedes	-11.8717
▁meteor	-11.8717
▁subordinate	-11.8717
▁hyp	-11.8735
▁Declaration	-11.8762
▁Mohammad	-11.8762
▁Syracuse	-11.8762
▁Penguin	-11.8762
▁electorate	-11.8762
▁relax	-11.8762
▁heaven	-11.8763
fighter	-11.8806
▁Floyd	-11.8808
▁knife	-11.8808
▁turtle	-11.8808
▁Rafael	-11.8808
▁chassis	-11.8808
hampton	-11.8808
▁trench	-11.8808
contaminat	-11.8809
▁Quinn	-11.8811
▁idol	-11.8812
▁advocat	-11.8812
text	-11.8834
america	-11.8843
2,2	-11.8843
lecommunications	-11.8854
▁affirm	-11.8854
▁skeleton	-11.8854
▁Myanmar	-11.8854
▁sensation	-11.8854
▁Arlington	-11.8854
▁Amateur	-11.8854
▁Beverly	-11.8854
▁Idol	-11.8857
▁satisfy	-11.89
▁Emergency	-11.89
▁abundant	-11.89
▁pneumonia	-11.89
▁Establish	-11.89
▁abbey	-11.89
▁amalgamat	-11.89
▁kidney	-11.89
▁fundrais	-11.89
▁Chennai	-11.89
▁pottery	-11.89
▁burst	-11.8901
▁dorsal	-11.8901
▁disguis	-11.8901
▁favorabl	-11.8917
▁sustainabl	-11.8922
▁Monastery	-11.8947
▁sworn	-11.8947
▁hymn	-11.8947
▁default	-11.8947
▁nobility	-11.8947
▁Martín	-11.8947
▁galleries	-11.8947
▁Different	-11.8947
▁notorious	-11.8947
▁Sleep	-11.8947
▁Fleming	-11.8947
▁stuck	-11.8947
▁smell	-11.8947
prehensi	-11.8953
ologic	-11.8967
Italia	-11.8968
▁accusation	-11.8993
▁pseudonym	-11.8993
▁Wizard	-11.8993
▁ambush	-11.8993
▁CNN	-11.8993
▁fractur	-11.8994
▁watershed	-11.8995
designat	-11.8995
▁sank	-11.8995
▁accredited	-11.904
▁ecclesiastic	-11.904
▁militant	-11.904
▁Galaxy	-11.904
▁Terminal	-11.904
▁Recreation	-11.904
▁Antwerp	-11.9087
▁Investment	-11.9087
▁Mikhail	-11.9087
▁embedded	-11.9087
▁incomplete	-11.9087
▁pedestrian	-11.9087
▁synthetic	-11.9087
▁terrestrial	-11.9087
▁calcium	-11.9087
▁throat	-11.9087
▁charitabl	-11.9087
▁diagram	-11.9087
▁motto	-11.9088
▁Surviv	-11.9088
▁Smok	-11.9089
▁Samoa	-11.9125
▁Gibraltar	-11.9135
▁Kosovo	-11.9135
▁phenomena	-11.9135
▁turret	-11.9135
vascular	-11.9135
▁prolific	-11.9135
▁Hundred	-11.9135
▁jersey	-11.9135
▁Android	-11.9135
▁Pioneer	-11.9135
economic	-11.9135
▁XVI	-11.9136
▁Patriarch	-11.9182
▁Rebecca	-11.9182
▁platinum	-11.9182
▁Counsel	-11.9182
▁psychologist	-11.9182
▁NSW	-11.9183
▁Sheikh	-11.9183
president	-11.9184
▁Literar	-11.9191
extant	-11.9218
▁swept	-11.923
▁Ladies	-11.9232
▁interfere	-11.9241
evolutionary	-11.9262
fallen	-11.927
▁Ferguson	-11.9278
▁Observatory	-11.9278
▁Commodore	-11.9278
▁UCLA	-11.9278
▁surgical	-11.9278
▁Holiday	-11.9278
▁Inspector	-11.9278
▁Emirate	-11.9278
▁landowner	-11.9279
▁tiger	-11.9279
▁contrar	-11.9286
▁Silesia	-11.9293
▁biographi	-11.9308
▁Protect	-11.9321
▁Nicaragua	-11.9327
▁devotion	-11.9327
inflammat	-11.9327
▁thrust	-11.9327
ć	-12.2006
‘	-12.3669
“	-13.0413
.	-13.9835
)	-14.1853
•	-14.3356
£	-14.7274
(	-15.0017
!	-15.2378
;	-15.3807
:	-15.5474
#	-17.8308
_	-17.8309
=	-17.831
&	-17.8311
/	-17.8312
|	-17.8313
+	-17.8314
?	-17.8314
[	-17.8314
]	-17.8314
"	-17.8314
%	-17.8314
